<s>	0
<pad>	1
</s>	2
<unk>	3
,	4
.	5
▁	6
s	7
▁de	8
-	9
▁a	10
a	11
:	12
e	13
i	14
▁(	15
)	16
▁i	17
t	18
n	19
▁-	20
▁la	21
▁en	22
▁in	23
▁na	24
'	25
’	26
...	27
▁e	28
▁на	29
。	30
o	31
?	32
en	33
u	34
▁и	35
▁o	36
、	37
!	38
m	39
▁se	40
▁que	41
r	42
的	43
▁"	44
▁di	45
▁–	46
▁to	47
▁da	48
▁в	49
،	50
▁un	51
▁“	52
y	53
▁do	54
▁je	55
er	56
▁sa	57
"	58
а	59
▁og	60
▁за	61
▁A	62
”	63
/	64
▁و	65
an	66
te	67
▁die	68
▁да	69
▁the	70
d	71
▁er	72
in	73
;	74
▁u	75
na	76
▁не	77
▁si	78
▁ja	79
▁za	80
▁v	81
▁et	82
▁is	83
▁у	84
da	85
ne	86
▁I	87
▁el	88
и	89
es	90
▁s	91
k	92
ni	93
▁«	94
▁le	95
▁l	96
▁z	97
▁on	98
▁at	99
▁for	100
▁_	101
ta	102
е	103
▁d	104
у	105
▁1	106
re	107
▁ne	108
▁på	109
▁no	110
▁of	111
de	112
▁y	113
▁се	114
▁du	115
▁2	116
▁per	117
ti	118
▁yang	119
▁te	120
▁para	121
▁der	122
▁dan	123
▁som	124
।	125
et	126
h	127
▁med	128
▁по	129
м	130
▁van	131
(	132
le	133
▁të	134
▁с	135
▁and	136
▁„	137
▁3	138
▁til	139
ی	140
l	141
▁an	142
la	143
▁al	144
ja	145
▁del	146
ar	147
▁w	148
▁det	149
li	150
▁ya	151
▁:	152
▁...	153
の	154
“	155
▁ka	156
no	157
▁con	158
▁S	159
▁po	160
ka	161
as	162
▁me	163
is	164
▁und	165
▁su	166
»	167
▁den	168
z	169
j	170
▁om	171
si	172
▁ve	173
▁och	174
▁در	175
ه	176
g	177
▁به	178
ي	179
▁O	180
▁د	181
▁har	182
▁от	183
se	184
▁av	185
▁be	186
▁ar	187
to	188
▁і	189
▁5	190
on	191
ma	192
▁ir	193
).	194
em	195
▁por	196
о	197
▁es	198
▁les	199
▁ki	200
▁4	201
ul	202
▁kan	203
▁‘	204
та	205
ch	206
▁।	207
ga	208
▁10	209
▁з	210
▁il	211
на	212
在	213
ing	214
▁και	215
▁کے	216
it	217
▁е	218
ra	219
▁una	220
▁so	221
т	222
us	223
▁des	224
▁het	225
те	226
ы	227
▁ku	228
▁od	229
▁من	230
­	231
os	232
▁op	233
▁ng	234
ς	235
je	236
▁as	237
c	238
▁La	239
▁في	240
▁E	241
▁'	242
▁att	243
х	244
я	245
do	246
),	247
▁/	248
▁pa	249
ة	250
を	251
▁а	252
▁à	253
p	254
▁до	255
▁ha	256
at	257
ا	258
▁wa	259
і	260
▁af	261
▁De	262
▁bir	263
和	264
ko	265
mi	266
▁2018	267
]	268
▁nie	269
▁از	270
st	271
ve	272
nya	273
了	274
b	275
▁M	276
com	277
َ	278
▁vi	279
▁pe	280
が	281
me	282
▁és	283
A	284
▁var	285
▁um	286
▁के	287
▁کی	288
al	289
▁che	290
▁ma	291
▁—	292
▁een	293
S	294
▁az	295
▁је	296
ed	297
▁ko	298
ny	299
▁ni	300
ki	301
am	302
н	303
2	304
▁6	305
om	306
▁va	307
▁ta	308
un	309
▁V	310
▁ke	311
й	312
▁C	313
▁cu	314
▁nu	315
um	316
▁میں	317
ci	318
ku	319
lar	320
▁din	321
▁në	322
ن	323
▁mi	324
▁და	325
▁во	326
に	327
то	328
ce	329
va	330
kan	331
▁man	332
▁bi	333
v	334
▁B	335
не	336
▁bo	337
▁од	338
▁L	339
▁»	340
▁K	341
は	342
ek	343
ak	344
▁U	345
▁în	346
▁m	347
▁ang	348
▁է	349
ke	350
▁non	351
▁em	352
▁Na	353
是	354
ს	355
को	356
▁En	357
ни	358
▁ال	359
▁In	360
▁7	361
▁os	362
3	363
▁ה	364
lo	365
▁par	366
의	367
ت	368
▁är	369
▁tu	370
‘	371
be	372
▁bu	373
▁το	374
▁com	375
م	376
▁ca	377
▁[	378
il	379
но	380
▁das	381
▁8	382
▁می	383
▁T	384
▁του	385
▁να	386
▁20	387
▁los	388
▁að	389
▁by	390
▁D	391
▁á	392
▁é	393
▁för	394
ya	395
ات	396
D	397
▁you	398
ia	399
▁li	400
ի	401
ba	402
▁که	403
▁zu	404
▁ce	405
▁را	406
▁о	407
ca	408
▁mai	409
▁się	410
मा	411
▁با	412
을	413
▁что	414
ка	415
ri	416
▁В	417
1	418
ом	419
f	420
▁में	421
▁yn	422
▁15	423
▁из	424
x	425
▁å	426
▁12	427
di	428
ge	429
í	430
و	431
mo	432
sa	433
w	434
▁met	435
▁P	436
▁est	437
▁No	438
▁í	439
▁при	440
C	441
▁it	442
▁ist	443
▁am	444
▁iz	445
é	446
▁У	447
ים	448
ng	449
▁that	450
ă	451
▁pas	452
▁men	453
_	454
ը	455
▁re	456
▁са	457
tu	458
▁lo	459
▁है	460
ju	461
▁dengan	462
▁της	463
im	464
有	465
▁tak	466
▁dhe	467
▁#	468
이	469
年	470
▁की	471
▁k	472
▁este	473
ur	474
▁ei	475
г	476
▁است	477
ie	478
▁pre	479
에	480
ir	481
▁untuk	482
▁9	483
▁sem	484
▁ini	485
▁ut	486
人	487
ِ	488
▁та	489
▁اور	490
▁mit	491
▁جي	492
▁ver	493
▁pri	494
▁så	495
▁30	496
ho	497
▁این	498
▁کا	499
▁په	500
▁c	501
▁pro	502
▁Se	503
▁سے	504
▁2017	505
ה	506
で	507
ai	508
▁was	509
ten	510
▁την	511
от	512
jo	513
中	514
ov	515
ro	516
▁care	517
▁для	518
go	519
▁ser	520
▁për	521
▁eta	522
▁پر	523
▁có	524
est	525
д	526
▁G	527
ha	528
▁со	529
▁və	530
▁au	531
id	532
▁como	533
▁11	534
ले	535
▁А	536
▁ay	537
ly	538
nu	539
▁El	540
▁N	541
▁von	542
▁18	543
▁và	544
▁ikke	545
ли	546
л	547
ን	548
dan	549
▁của	550
ла	551
▁co	552
▁او	553
▁کو	554
den	555
▁على	556
ndo	557
▁με	558
ов	559
」	560
mu	561
不	562
▁F	563
▁ב	564
▁è	565
▁im	566
▁Z	567
I	568
▁qui	569
▁till	570
B	571
▁H	572
大	573
ം	574
上	575
▁las	576
ُ	577
▁pour	578
▁Det	579
▁là	580
▁The	581
▁Vi	582
el	583
▁های	584
「	585
▁ў	586
co	587
▁fra	588
▁С	589
sta	590
▁про	591
ning	592
ل	593
M	594
ą	595
za	596
lik	597
▁že	598
▁ein	599
▁ny	600
▁W	601
▁Si	602
ler	603
▁her	604
K	605
▁ad	606
▁dat	607
ها	608
ת	609
と	610
▁16	611
▁pentru	612
▁sur	613
▁για	614
▁1.	615
▁14	616
4	617
T	618
▁&	619
▁של	620
▁are	621
▁Die	622
▁የ	623
▁voor	624
ი	625
ა	626
▁R	627
▁ou	628
▁को	629
月	630
我	631
▁mga	632
”,	633
wa	634
日	635
▁Le	636
▁или	637
▁dalam	638
▁ہے	639
ти	640
▁का	641
▁we	642
▁für	643
▁auf	644
▁over	645
▁से	646
E	647
ية	648
▁су	649
с	650
▁που	651
в	652
▁n	653
▁ich	654
▁dos	655
का	656
▁ל	657
ji	658
ी	659
nt	660
▁*	661
▁ale	662
▁Po	663
▁aan	664
▁م	665
▁છે	666
▁Bu	667
▁jeg	668
man	669
O	670
▁eller	671
▁На	672
▁ra	673
ment	674
▁што	675
▁ب	676
да	677
▁with	678
▁από	679
га	680
▁cho	681
▁nem	682
P	683
一	684
ok	685
vi	686
▁không	687
를	688
▁את	689
▁то	690
ê	691
ն	692
du	693
nin	694
го	695
://	696
은	697
к	698
ที่	699
▁ge	700
nie	701
▁13	702
ً	703
▁ter	704
▁?	705
▁g	706
▁or	707
zi	708
á	709
י	710
▁!	711
ad	712
가	713
▁25	714
▁جو	715
▁ان	716
▁To	717
▁к	718
▁kaj	719
ter	720
▁meg	721
ට	722
ма	723
G	724
▁،	725
▁şi	726
▁Sie	727
▁በ	728
▁17	729
▁hogy	730
ze	731
▁mais	732
né	733
▁dari	734
gi	735
ш	736
▁als	737
▁go	738
▁ho	739
".	740
▁jo	741
ите	742
ю	743
▁24	744
▁dem	745
▁ت	746
▁alle	747
or	748
▁nicht	749
▁û	750
ки	751
▁itu	752
▁па	753
▁اس	754
ين	755
▁all	756
▁0	757
5	758
▁my	759
▁kwa	760
ban	761
▁tidak	762
pa	763
▁he	764
▁have	765
ում	766
▁ي	767
▁•	768
는	769
▁ber	770
po	771
▁să	772
▁une	773
▁र	774
▁son	775
ben	776
▁han	777
▁نے	778
▁но	779
▁2016	780
▁η	781
▁ته	782
ik	783
▁я	784
ان	785
▁Du	786
▁2.	787
▁uma	788
到	789
ів	790
▁եւ	791
”.	792
▁wat	793
š	794
▁ل	795
ou	796
ní	797
▁(1)	798
▁Ne	799
р	800
▁си	801
▁۾	802
▁Di	803
▁И	804
▁100	805
▁oo	806
▁dans	807
▁t	808
▁fi	809
▁jag	810
▁вы	811
ен	812
ын	813
ver	814
▁që	815
ም	816
▁nga	817
ot	818
▁как	819
der	820
▁J	821
lu	822
▁Ja	823
ste	824
▁Za	825
د	826
ми	827
▁și	828
▁За	829
",	830
▁can	831
▁della	832
▁sich	833
▁jest	834
ر	835
▁50	836
bo	837
ं	838
N	839
mos	840
H	841
▁mu	842
▁pada	843
等	844
▁Je	845
io	846
്	847
▁छ	848
ó	849
ות	850
ის	851
他	852
▁Re	853
▁dit	854
▁pod	855
V	856
も	857
▁sau	858
▁agus	859
▁τα	860
ж	861
▁أن	862
ų	863
q	864
ów	865
L	866
tar	867
ରେ	868
ž	869
ش	870
▁और	871
ig	872
▁Be	873
▁מ	874
kin	875
▁b	876
▁ما	877
▁ا	878
▁dia	879
▁sin	880
▁min	881
ru	882
▁۽	883
▁Al	884
ina	885
也	886
就	887
ме	888
▁một	889
▁ji	890
▁Il	891
▁inte	892
▁An	893
ні	894
▁על	895
ের	896
oj	897
▁një	898
▁що	899
ون	900
▁По	901
ى	902
▁this	903
وں	904
ו	905
▁الم	906
ہ	907
▁Per	908
▁eine	909
6	910
▁Ma	911
▁được	912
ita	913
▁ga	914
▁p	915
au	916
▁ها	917
▁2015	918
F	919
▁amb	920
▁auch	921
▁ako	922
▁ali	923
▁کہ	924
▁các	925
س	926
th	927
ку	928
ol	929
▁Da	930
▁mo	931
▁ze	932
ts	933
ach	934
▁your	935
dir	936
ska	937
ம்	938
ty	939
▁ao	940
ului	941
ක්	942
ini	943
que	944
▁akan	945
ና	946
▁Sa	947
▁го	948
▁kun	949
▁©	950
▁nos	951
▁21	952
▁19	953
▁sy	954
地	955
ে	956
ну	957
▁uz	958
▁not	959
▁mal	960
▁ba	961
▁σε	962
10	963
bi	964
vo	965
7	966
▁एक	967
▁पर	968
▁под	969
▁”	970
ú	971
ك	972
ä	973
.”	974
▁че	975
े	976
▁>	977
bu	978
hi	979
ları	980
@	981
ren	982
ий	983
▁Do	984
▁των	985
▁alla	986
tur	987
des	988
ся	989
▁Y	990
so	991
▁Un	992
한	993
你	994
▁ob	995
त	996
▁+	997
न	998
র	999
▁trong	1000
▁plus	1001
ky	1002
ut	1003
▁Er	1004
▁más	1005
ны	1006
▁στο	1007
▁người	1008
их	1009
cu	1010
▁dar	1011
▁برای	1012
▁tai	1013
▁egy	1014
sen	1015
▁کې	1016
▁vir	1017
ele	1018
8	1019
▁수	1020
fa	1021
▁x	1022
▁vous	1023
ದ	1024
ë	1025
ा	1026
▁não	1027
▁sobre	1028
fi	1029
▁ac	1030
▁3.	1031
ć	1032
ye	1033
以	1034
ista	1035
对	1036
ของ	1037
▁ο	1038
▁22	1039
出	1040
ь	1041
sk	1042
ih	1043
▁ett	1044
▁ви	1045
are	1046
ат	1047
도	1048
▁2014	1049
要	1050
▁είναι	1051
R	1052
▁ti	1053
▁ו	1054
men	1055
▁zijn	1056
ı	1057
ම	1058
▁ci	1059
ْ	1060
▁So	1061
U	1062
▁vil	1063
为	1064
[	1065
ର	1066
nde	1067
ч	1068
نا	1069
▁г	1070
▁fa	1071
▁kad	1072
tas	1073
માં	1074
▁ਦੇ	1075
tan	1076
고	1077
п	1078
▁bei	1079
▁раз	1080
pe	1081
ого	1082
로	1083
sti	1084
ды	1085
▁об	1086
▁Не	1087
▁że	1088
▁О	1089
ada	1090
▁ще	1091
ం	1092
▁без	1093
▁:)	1094
ში	1095
▁h	1096
▁это	1097
ken	1098
▁için	1099
▁sex	1100
▁وال	1101
及	1102
▁qu	1103
–	1104
▁23	1105
he	1106
而	1107
▁mar	1108
與	1109
ın	1110
▁Men	1111
▁40	1112
ná	1113
ия	1114
▁els	1115
▁với	1116
ть	1117
▁online	1118
▁ex	1119
ва	1120
han	1121
aj	1122
▁uit	1123
das	1124
де	1125
9	1126
nda	1127
小	1128
▁ju	1129
下	1130
ය	1131
hu	1132
▁کي	1133
▁skal	1134
`	1135
▁Ka	1136
▁له	1137
ado	1138
ના	1139
dos	1140
nak	1141
▁ने	1142
▁mer	1143
▁sig	1144
▁так	1145
!!	1146
会	1147
▁entre	1148
▁هم	1149
ción	1150
ene	1151
▁tra	1152
kar	1153
▁vy	1154
▁Az	1155
ção	1156
▁לא	1157
zo	1158
su	1159
▁အ	1160
▁kas	1161
uri	1162
▁mas	1163
▁į	1164
lla	1165
▁atau	1166
ની	1167
ّ	1168
▁seu	1169
ů	1170
▁už	1171
▁Ar	1172
用	1173
nia	1174
▁eu	1175
my	1176
we	1177
ው	1178
net	1179
에서	1180
ll	1181
▁від	1182
mente	1183
▁Es	1184
▁kar	1185
▁tot	1186
ने	1187
ේ	1188
与	1189
지	1190
ami	1191
ssa	1192
▁X	1193
▁oli	1194
ع	1195
ных	1196
30	1197
都	1198
▁jak	1199
ле	1200
ใน	1201
▁video	1202
▁все	1203
▁Ko	1204
ske	1205
ά	1206
▁fan	1207
▁Mi	1208
▁bez	1209
▁2013	1210
ן	1211
ine	1212
และ	1213
ах	1214
▁Me	1215
▁saya	1216
や	1217
▁Ta	1218
ло	1219
▁juga	1220
▁will	1221
▁θα	1222
क	1223
ks	1224
▁wie	1225
▁ved	1226
▁στην	1227
▁آن	1228
lle	1229
&	1230
ę	1231
▁ook	1232
▁են	1233
gu	1234
▁parte	1235
ant	1236
▁لل	1237
▁f	1238
▁mis	1239
▁ez	1240
▁تو	1241
."	1242
▁ada	1243
▁τον	1244
؟	1245
▁fel	1246
▁چې	1247
▁vor	1248
min	1249
▁Pro	1250
».	1251
▁може	1252
▁हो	1253
▁iš	1254
ez	1255
▁hat	1256
▁up	1257
ам	1258
▁kita	1259
▁ons	1260
▁Li	1261
▁کر	1262
▁ah	1263
per	1264
▁آهي	1265
▁он	1266
ին	1267
▁sunt	1268
ке	1269
ного	1270
▁iyo	1271
by	1272
但	1273
▁hi	1274
▁·	1275
▁sind	1276
lt	1277
性	1278
ό	1279
·	1280
ами	1281
ال	1282
rea	1283
▁but	1284
▁די	1285
▁more	1286
▁نه	1287
多	1288
▁sam	1289
tor	1290
과	1291
ā	1292
▁हैं	1293
ry	1294
▁from	1295
లో	1296
ber	1297
à	1298
bar	1299
▁ai	1300
▁As	1301
ों	1302
nek	1303
lı	1304
▁post	1305
nih	1306
▁aj	1307
な	1308
から	1309
▁Der	1310
▁Co	1311
▁aus	1312
ή	1313
ers	1314
них	1315
з	1316
被	1317
為	1318
▁më	1319
თ	1320
ව	1321
好	1322
за	1323
▁2012	1324
ب	1325
▁For	1326
▁لا	1327
+	1328
▁sie	1329
sz	1330
▁werden	1331
▁нь	1332
▁أ	1333
ej	1334
▁إلى	1335
ski	1336
▁hai	1337
▁τους	1338
»,	1339
ile	1340
leri	1341
▁Pa	1342
ят	1343
子	1344
▁Ke	1345
▁film	1346
▁vai	1347
▁niet	1348
ել	1349
▁ile	1350
ു	1351
ima	1352
ven	1353
ə	1354
▁же	1355
च	1356
ere	1357
▁những	1358
▁بر	1359
▁tre	1360
లు	1361
▁că	1362
tion	1363
အ	1364
▁عن	1365
ah	1366
▁oder	1367
▁år	1368
=	1369
▁ਦੀ	1370
▁Tu	1371
▁28	1372
し	1373
▁@	1374
J	1375
▁ik	1376
▁ag	1377
新	1378
▁under	1379
▁come	1380
▁26	1381
▁К	1382
▁आहे	1383
▁adalah	1384
लाई	1385
ත්	1386
ийн	1387
▁)	1388
▁sono	1389
jen	1390
▁Ha	1391
▁2011	1392
र	1393
ний	1394
高	1395
▁është	1396
▁estas	1397
▁4.	1398
ei	1399
▁само	1400
▁We	1401
nın	1402
可	1403
ला	1404
val	1405
▁ਹੈ	1406
▁upp	1407
▁đã	1408
gen	1409
yo	1410
uje	1411
ње	1412
▁Te	1413
lan	1414
▁blog	1415
▁nas	1416
ко	1417
iz	1418
ist	1419
之	1420
▁dass	1421
ната	1422
▁الله	1423
аў	1424
▁olan	1425
▁www	1426
▁ri	1427
sel	1428
▁Nu	1429
che	1430
▁Facebook	1431
▁kepada	1432
家	1433
pi	1434
▁М	1435
cha	1436
ት	1437
▁27	1438
▁wir	1439
▁også	1440
可以	1441
▁dag	1442
▁як	1443
nes	1444
α	1445
▁Ver	1446
б	1447
het	1448
▁[...]	1449
▁ми	1450
▁thể	1451
▁cum	1452
です	1453
▁અને	1454
мо	1455
W	1456
ο	1457
։	1458
dy	1459
▁Pe	1460
▁Ku	1461
san	1462
ang	1463
▁ከ	1464
▁τη	1465
▁dig	1466
▁web	1467
▁..	1468
ز	1469
▁א	1470
ल	1471
स	1472
ι	1473
cie	1474
▁આ	1475
▁maar	1476
də	1477
org	1478
nte	1479
ता	1480
▁tam	1481
▁orang	1482
▁forma	1483
lor	1484
▁bisa	1485
ite	1486
《	1487
мен	1488
က	1489
▁sen	1490
tik	1491
▁ten	1492
所	1493
▁และ	1494
sh	1495
▁60	1496
▁við	1497
▁để	1498
▁ili	1499
ana	1500
▁және	1501
▁unha	1502
기	1503
▁이	1504
ger	1505
dar	1506
ton	1507
ಯ	1508
▁Я	1509
mas	1510
Z	1511
▁että	1512
ې	1513
▁DE	1514
ster	1515
本	1516
tra	1517
▁vel	1518
▁Ki	1519
▁Ni	1520
ге	1521
▁З	1522
ните	1523
▁mereka	1524
፣	1525
▁più	1526
ကို	1527
▁program	1528
▁He	1529
12	1530
▁որ	1531
▁2010	1532
▁بعد	1533
▁nuk	1534
我们	1535
лі	1536
▁Б	1537
ció	1538
ala	1539
▁pot	1540
▁ایک	1541
X	1542
▁may	1543
asi	1544
時	1545
▁مع	1546
ได้	1547
者	1548
20	1549
▁jy	1550
ем	1551
▁sal	1552
水	1553
ný	1554
î	1555
▁has	1556
會	1557
ական	1558
nje	1559
С	1560
▁nach	1561
着	1562
▁ab	1563
!!!	1564
▁anda	1565
lah	1566
▁ਨੂੰ	1567
▁بھی	1568
ને	1569
▁está	1570
인	1571
▁Man	1572
ii	1573
www	1574
▁Den	1575
▁تا	1576
les	1577
▁ہیں	1578
sko	1579
能	1580
▁ska	1581
▁bij	1582
分	1583
ты	1584
▁ben	1585
၊	1586
▁få	1587
》	1588
来	1589
前	1590
▁या	1591
▁fer	1592
ः	1593
▁ilə	1594
им	1595
sin	1596
ے	1597
ν	1598
일	1599
▁bet	1600
▁super	1601
▁zo	1602
ran	1603
▁δεν	1604
rum	1605
ais	1606
▁خود	1607
▁cha	1608
▁avec	1609
ға	1610
▁нас	1611
说	1612
▁dei	1613
▁sub	1614
▁era	1615
▁یک	1616
▁này	1617
▁न	1618
ung	1619
▁bra	1620
▁http	1621
▁katika	1622
▁би	1623
ների	1624
ше	1625
ന്	1626
▁ek	1627
▁oleh	1628
கள்	1629
▁kom	1630
▁war	1631
▁one	1632
▁ہے۔	1633
手	1634
或	1635
tes	1636
▁ප්	1637
▁هو	1638
*	1639
▁dal	1640
▁như	1641
▁esta	1642
yan	1643
ל	1644
▁pra	1645
▁sua	1646
▁j	1647
nja	1648
▁nur	1649
▁It	1650
ria	1651
自己	1652
▁pred	1653
으로	1654
▁რომ	1655
▁ли	1656
▁Con	1657
▁chi	1658
▁über	1659
▁just	1660
▁sit	1661
11	1662
og	1663
ј	1664
án	1665
യ	1666
zu	1667
▁οι	1668
ът	1669
▁ги	1670
ები	1671
▁about	1672
ý	1673
ud	1674
▁არ	1675
▁koji	1676
去	1677
▁ќе	1678
ner	1679
rá	1680
son	1681
▁कि	1682
ida	1683
ła	1684
她	1685
ari	1686
nom	1687
▁ни	1688
▁یا	1689
▁r	1690
して	1691
هم	1692
▁mig	1693
▁kur	1694
▁ය	1695
▁dell	1696
▁mag	1697
▁има	1698
át	1699
▁Η	1700
ně	1701
▁29	1702
lari	1703
era	1704
▁بال	1705
▁ن	1706
ски	1707
tel	1708
А	1709
▁شده	1710
ска	1711
▁være	1712
▁τις	1713
▁пре	1714
▁foi	1715
kon	1716
ł	1717
▁nel	1718
му	1719
▁Para	1720
▁Да	1721
ზე	1722
Y	1723
ata	1724
▁их	1725
将	1726
mar	1727
ker	1728
▁Д	1729
ет	1730
▁Jeg	1731
ên	1732
▁time	1733
▁Les	1734
▁San	1735
▁sed	1736
▁(2)	1737
▁fost	1738
▁его	1739
▁dating	1740
▁пере	1741
2018	1742
del	1743
aren	1744
▁%	1745
lig	1746
▁ap	1747
ना	1748
▁му	1749
nej	1750
▁ש	1751
ди	1752
▁Anda	1753
ով	1754
ens	1755
▁gan	1756
▁де	1757
iga	1758
ş	1759
land	1760
▁التي	1761
ੀ	1762
▁ഒരു	1763
▁site	1764
▁ای	1765
pu	1766
▁ఈ	1767
ой	1768
後	1769
▁като	1770
ic	1771
kom	1772
▁Dr	1773
▁plan	1774
▁Et	1775
▁bạn	1776
▁bat	1777
وا	1778
ns	1779
▁भी	1780
▁200	1781
zione	1782
vu	1783
▁Mar	1784
▁km	1785
する	1786
ند	1787
▁pero	1788
ని	1789
▁tem	1790
▁hier	1791
▁пра	1792
▁wy	1793
че	1794
名	1795
▁lebih	1796
υ	1797
▁gratis	1798
ali	1799
最	1800
心	1801
▁dapat	1802
tal	1803
▁ee	1804
เป็น	1805
▁bien	1806
▁سال	1807
။	1808
▁auto	1809
▁out	1810
une	1811
▁लिए	1812
▁При	1813
tis	1814
▁Google	1815
▁මේ	1816
▁sus	1817
▁Por	1818
18	1819
▁internet	1820
▁us	1821
▁dla	1822
▁kommer	1823
vis	1824
▁telah	1825
后	1826
▁cm	1827
az	1828
▁via	1829
ion	1830
▁air	1831
▁Su	1832
▁News	1833
การ	1834
ци	1835
▁they	1836
15	1837
▁noch	1838
▁làm	1839
▁Her	1840
▁ад	1841
这	1842
▁Bi	1843
得	1844
▁Ce	1845
dor	1846
▁sama	1847
ส	1848
▁amin	1849
▁nog	1850
▁Но	1851
ја	1852
▁Ba	1853
?”	1854
نى	1855
▁daha	1856
ной	1857
▁Das	1858
ද	1859
一个	1860
chi	1861
ха	1862
cz	1863
▁delle	1864
tak	1865
▁ani	1866
ої	1867
▁från	1868
▁lui	1869
▁hal	1870
▁công	1871
▁ud	1872
▁får	1873
ные	1874
다	1875
▁kann	1876
▁2009	1877
ți	1878
工作	1879
▁wird	1880
nik	1881
ту	1882
cia	1883
▁like	1884
▁đến	1885
స్	1886
lər	1887
ati	1888
▁boleh	1889
iti	1890
чи	1891
▁5.	1892
▁về	1893
か	1894
▁će	1895
▁कर	1896
▁més	1897
时	1898
მა	1899
ron	1900
ک	1901
▁had	1902
公司	1903
▁мен	1904
ության	1905
天	1906
▁khi	1907
ді	1908
▁bar	1909
▁TV	1910
▁door	1911
ата	1912
▁At	1913
▁Pre	1914
▁með	1915
ting	1916
▁lại	1917
▁einen	1918
▁his	1919
म	1920
▁tudi	1921
▁kuwa	1922
▁نہیں	1923
▁sta	1924
・	1925
▁hun	1926
▁tri	1927
met	1928
ð	1929
中国	1930
▁seg	1931
▁nad	1932
ق	1933
è	1934
ale	1935
▁31	1936
▁lang	1937
▁یہ	1938
▁kon	1939
▁inter	1940
ра	1941
▁ole	1942
▁cũng	1943
ల	1944
▁►	1945
una	1946
▁Het	1947
že	1948
గా	1949
▁Har	1950
ня	1951
tos	1952
▁efter	1953
▁raz	1954
更	1955
nim	1956
▁see	1957
ರ	1958
▁kr	1959
▁те	1960
var	1961
க்	1962
해	1963
व	1964
从	1965
ło	1966
▁przy	1967
▁anche	1968
ების	1969
gar	1970
三	1971
gan	1972
▁todo	1973
let	1974
▁kot	1975
ц	1976
len	1977
▁gli	1978
▁kui	1979
дан	1980
ť	1981
ב	1982
▁много	1983
▁::	1984
▁како	1985
▁Т	1986
▁ја	1987
化	1988
ે	1989
▁पनि	1990
mer	1991
▁pun	1992
ии	1993
▁شود	1994
▁II	1995
ба	1996
η	1997
外	1998
▁کیا	1999
▁أو	2000
پ	2001
對	2002
行	2003
“,	2004
▁Home	2005
金	2006
▁מה	2007
里	2008
යි	2009
ር	2010
▁foto	2011
▁ਦਾ	2012
▁saat	2013
▁који	2014
ര്	2015
▁Go	2016
力	2017
▁roz	2018
▁ແລະ	2019
와	2020
▁2008	2021
▁Am	2022
▁fyrir	2023
č	2024
ப்	2025
生	2026
▁Os	2027
▁haben	2028
ක	2029
น	2030
ف	2031
▁най	2032
ля	2033
▁naj	2034
ให้	2035
କୁ	2036
up	2037
▁дека	2038
想	2039
▁жана	2040
▁Ca	2041
по	2042
▁net	2043
ـ	2044
▁sont	2045
▁get	2046
▁جا	2047
ج	2048
▁تي	2049
ם	2050
▁uu	2051
ча	2052
▁data	2053
▁hay	2054
ab	2055
▁आणि	2056
▁ham	2057
再	2058
▁ở	2059
▁far	2060
tie	2061
▁ro	2062
ica	2063
▁nous	2064
mail	2065
ει	2066
▁کار	2067
ју	2068
ling	2069
▁pag	2070
▁Is	2071
▁kako	2072
▁तो	2073
ನ	2074
る	2075
▁Ber	2076
):	2077
ను	2078
▁Ci	2079
▁mot	2080
▁samo	2081
vin	2082
▁inn	2083
▁менен	2084
리	2085
▁olarak	2086
кі	2087
χ	2088
న	2089
▁სა	2090
▁Lo	2091
ી	2092
▁ही	2093
ಿ	2094
ስ	2095
▁Nam	2096
ния	2097
ją	2098
사	2099
又	2100
▁500	2101
сы	2102
▁ف	2103
ili	2104
ња	2105
కు	2106
vat	2107
▁Ο	2108
res	2109
向	2110
い	2111
看	2112
vad	2113
▁ও	2114
՝	2115
▁má	2116
ത്	2117
elle	2118
▁hy	2119
▁было	2120
▁aku	2121
自	2122
하는	2123
▁cada	2124
▁kung	2125
▁tik	2126
ు	2127
市	2128
▁sẽ	2129
▁tur	2130
มา	2131
▁Ali	2132
▁॥	2133
▁satu	2134
▁ότι	2135
ો	2136
▁ඒ	2137
प	2138
▁अ	2139
је	2140
മ	2141
tek	2142
tus	2143
▁І	2144
ন	2145
op	2146
▁pi	2147
න්	2148
ire	2149
法	2150
ным	2151
ţi	2152
▁są	2153
rik	2154
ан	2155
▁това	2156
▁це	2157
▁pie	2158
نىڭ	2159
▁dy	2160
▁On	2161
▁çok	2162
ਾਂ	2163
來	2164
很	2165
시	2166
▁tempo	2167
▁sé	2168
▁байна	2169
▁xwe	2170
스	2171
ном	2172
ών	2173
▁if	2174
rat	2175
▁мы	2176
▁Jo	2177
▁nam	2178
mis	2179
ша	2180
▁עם	2181
ate	2182
事	2183
▁beste	2184
▁تر	2185
ille	2186
van	2187
це	2188
ser	2189
▁או	2190
▁नहीं	2191
ный	2192
▁bil	2193
▁todos	2194
▁ఆ	2195
မ	2196
▁tan	2197
ram	2198
od	2199
▁און	2200
း	2201
ል	2202
▁=	2203
▁Azərbaycan	2204
▁אין	2205
▁Ge	2206
▁Allah	2207
nd	2208
▁iki	2209
▁അ	2210
어	2211
提供	2212
做	2213
▁lagi	2214
▁kami	2215
▁də	2216
inen	2217
▁स	2218
▁jou	2219
▁आ	2220
ներ	2221
▁જ	2222
▁ed	2223
▁bila	2224
ст	2225
▁oraz	2226
mat	2227
▁કે	2228
使用	2229
inn	2230
▁وي	2231
▁mà	2232
ная	2233
▁uns	2234
▁einer	2235
▁година	2236
▁ለ	2237
ların	2238
მ	2239
uar	2240
▁apa	2241
fe	2242
▁aber	2243
▁vo	2244
nos	2245
és	2246
uk	2247
▁80	2248
▁vào	2249
ið	2250
▁tại	2251
就是	2252
▁menjadi	2253
▁دو	2254
▁هر	2255
line	2256
са	2257
▁car	2258
▁tôi	2259
▁soo	2260
▁quan	2261
▁пред	2262
ac	2263
ret	2264
▁social	2265
های	2266
▁yra	2267
자	2268
▁ላይ	2269
▁fin	2270
con	2271
山	2272
▁35	2273
▁μας	2274
▁đó	2275
mm	2276
ม	2277
pen	2278
ën	2279
수	2280
▁ty	2281
ത	2282
入	2283
ो	2284
ende	2285
ก	2286
▁kā	2287
▁ste	2288
▁6.	2289
▁Dan	2290
▁Ho	2291
▁voi	2292
서	2293
▁бы	2294
▁što	2295
▁mir	2296
ок	2297
illa	2298
ները	2299
či	2300
▁don	2301
▁እና	2302
би	2303
▁contra	2304
ét	2305
~	2306
▁sebagai	2307
于	2308
▁oma	2309
tta	2310
tin	2311
té	2312
▁naar	2313
▁aby	2314
▁einem	2315
ು	2316
sal	2317
О	2318
▁Pri	2319
ation	2320
ಗಳು	2321
nar	2322
▁dels	2323
iya	2324
во	2325
▁които	2326
mak	2327
▁hvor	2328
ից	2329
▁які	2330
▁Op	2331
將	2332
▁شد	2333
▁phải	2334
lat	2335
▁під	2336
kat	2337
▁sempre	2338
▁זה	2339
▁pat	2340
▁meer	2341
ક	2342
▁opp	2343
nych	2344
▁blir	2345
把	2346
the	2347
▁bli	2348
▁casa	2349
▁አ	2350
ца	2351
▁Hotel	2352
ě	2353
В	2354
▁god	2355
▁New	2356
24	2357
▁70	2358
。”	2359
▁hem	2360
ның	2361
▁së	2362
▁their	2363
М	2364
▁Od	2365
▁vez	2366
▁what	2367
▁từ	2368
▁Ya	2369
▁መ	2370
▁Ti	2371
мі	2372
▁ano	2373
па	2374
ою	2375
▁כל	2376
▁Jag	2377
▁sve	2378
۔	2379
до	2380
ാ	2381
하고	2382
▁Om	2383
▁לה	2384
▁üçün	2385
มี	2386
yi	2387
▁zum	2388
0	2389
▁ч	2390
点	2391
▁Par	2392
▁Ang	2393
▁bin	2394
ду	2395
▁Q	2396
lin	2397
!”	2398
▁និង	2399
los	2400
ї	2401
▁še	2402
▁arī	2403
▁lahko	2404
▁tar	2405
▁бар	2406
af	2407
cy	2408
▁mes	2409
ज	2410
ové	2411
▁she	2412
其	2413
imo	2414
nen	2415
ली	2416
นี้	2417
دا	2418
した	2419
sha	2420
ので	2421
▁ye	2422
▁roku	2423
pl	2424
▁sú	2425
К	2426
た	2427
▁kao	2428
▁П	2429
▁nav	2430
▁им	2431
▁selv	2432
▁هذا	2433
kor	2434
ड	2435
▁vida	2436
▁ہو	2437
管理	2438
ila	2439
ված	2440
▁bagi	2441
ר	2442
▁Про	2443
▁سان	2444
▁000	2445
▁our	2446
▁lain	2447
▁prin	2448
ties	2449
▁media	2450
—	2451
wi	2452
▁qo	2453
ться	2454
▁nhà	2455
▁ó	2456
тар	2457
道	2458
▁xa	2459
▁Bo	2460
할	2461
ไป	2462
▁tym	2463
▁bis	2464
dal	2465
▁või	2466
▁đi	2467
▁przez	2468
ว่า	2469
kas	2470
▁Ak	2471
for	2472
ਚ	2473
ರು	2474
ці	2475
全	2476
ona	2477
▁tin	2478
▁trên	2479
ft	2480
ity	2481
▁tako	2482
ման	2483
▁Ich	2484
16	2485
▁tersebut	2486
▁vara	2487
ў	2488
17	2489
回	2490
▁sudah	2491
▁máis	2492
ним	2493
▁đầu	2494
▁ekki	2495
▁här	2496
▁gu	2497
▁ಈ	2498
▁any	2499
par	2500
▁Mo	2501
వ	2502
ύ	2503
▁bị	2504
▁€	2505
ide	2506
eg	2507
▁hàng	2508
сти	2509
▁90	2510
▁над	2511
las	2512
▁України	2513
ara	2514
▁lan	2515
ò	2516
ent	2517
於	2518
ей	2519
▁ayaa	2520
▁време	2521
▁pak	2522
▁ایران	2523
▁chỉ	2524
50	2525
▁دی	2526
▁ama	2527
▁andre	2528
ert	2529
▁только	2530
▁пры	2531
።	2532
▁tout	2533
▁इस	2534
ात	2535
▁helt	2536
tam	2537
ి	2538
▁prze	2539
sı	2540
▁Dar	2541
ства	2542
ค	2543
dır	2544
ಗೆ	2545
▁học	2546
▁بی	2547
▁Han	2548
ник	2549
▁sự	2550
......	2551
▁Ra	2552
ийг	2553
打	2554
tum	2555
▁können	2556
ин	2557
▁nhiều	2558
ും	2559
ო	2560
▁Tak	2561
дар	2562
▁mere	2563
文	2564
▁word	2565
ib	2566
▁بن	2567
▁וה	2568
▁ആ	2569
▁tahun	2570
▁ਨੇ	2571
ė	2572
という	2573
▁того	2574
表示	2575
და	2576
▁face	2577
▁Е	2578
▁thì	2579
▁نظر	2580
sten	2581
ден	2582
▁You	2583
కి	2584
▁seperti	2585
▁ble	2586
тай	2587
25	2588
▁mat	2589
kel	2590
.....	2591
14	2592
▁nak	2593
ck	2594
kal	2595
▁jako	2596
enie	2597
▁وہ	2598
സ്	2599
owe	2600
vel	2601
▁व	2602
花	2603
sku	2604
imi	2605
num	2606
จาก	2607
▁edhe	2608
▁Ve	2609
▁worden	2610
mento	2611
▁پاکستان	2612
▁động	2613
▁smo	2614
比	2615
▁dette	2616
ते	2617
▁نام	2618
sse	2619
▁ع	2620
度	2621
tă	2622
กับ	2623
ici	2624
▁그	2625
▁bara	2626
▁የሚ	2627
ani	2628
म्	2629
Д	2630
ap	2631
Б	2632
▁let	2633
ira	2634
క	2635
お	2636
▁ж	2637
▁pu	2638
▁solo	2639
說	2640
▁alt	2641
▁sonra	2642
če	2643
▁tema	2644
ర్	2645
▁My	2646
mus	2647
ד	2648
部	2649
க	2650
▁hari	2651
▁pan	2652
ट	2653
▁Το	2654
美	2655
jem	2656
特	2657
nas	2658
▁vagy	2659
▁том	2660
ble	2661
નો	2662
▁top	2663
▁भएको	2664
▁Internet	2665
▁maka	2666
▁mon	2667
▁300	2668
▁denne	2669
那	2670
▁nhất	2671
并	2672
▁Hi	2673
▁fram	2674
▁გა	2675
mp	2676
rin	2677
▁45	2678
gel	2679
년	2680
13	2681
iem	2682
▁når	2683
▁most	2684
▁there	2685
។	2686
се	2687
주	2688
اء	2689
▁அ	2690
▁2007	2691
▁Video	2692
▁Г	2693
り	2694
ా	2695
▁если	2696
ков	2697
方	2698
▁года	2699
nog	2700
ras	2701
ס	2702
ag	2703
▁final	2704
無	2705
nis	2706
▁час	2707
ές	2708
▁deze	2709
▁లో	2710
▁volt	2711
▁הוא	2712
▁oss	2713
▁euro	2714
ие	2715
ль	2716
▁mil	2717
▁До	2718
由	2719
▁mata	2720
bil	2721
▁deg	2722
▁isang	2723
▁роз	2724
▁nei	2725
isi	2726
ین	2727
】	2728
La	2729
ই	2730
tzen	2731
▁она	2732
ante	2733
▁Kan	2734
▁việc	2735
▁کرد	2736
Q	2737
ç	2738
▁Х	2739
>	2740
▁vol	2741
ရ	2742
ве	2743
▁т	2744
需要	2745
én	2746
▁banyak	2747
▁karena	2748
mal	2749
▁who	2750
▁Ek	2751
▁ind	2752
▁سره	2753
ית	2754
aan	2755
▁ning	2756
тер	2757
▁Mu	2758
jas	2759
▁amet	2760
▁ու	2761
▁när	2762
ল	2763
ր	2764
ega	2765
▁પણ	2766
海	2767
▁شما	2768
▁као	2769
▁деп	2770
▁votre	2771
▁mehr	2772
▁real	2773
▁ການ	2774
▁Em	2775
▁tal	2776
▁Ro	2777
ω	2778
μ	2779
▁ur	2780
▁thành	2781
ய	2782
rit	2783
ক	2784
sto	2785
▁dụng	2786
enia	2787
▁(3)	2788
▁32	2789
▁него	2790
▁ко	2791
▁они	2792
▁Um	2793
▁کان	2794
▁Post	2795
يا	2796
起	2797
க்க	2798
▁qua	2799
ій	2800
য়	2801
து	2802
成	2803
▁said	2804
ക	2805
▁would	2806
ന	2807
א	2808
▁been	2809
kov	2810
▁mod	2811
▁hiện	2812
zioni	2813
▁gaan	2814
रा	2815
stra	2816
મ	2817
我們	2818
▁;	2819
▁kes	2820
ži	2821
red	2822
▁Online	2823
ง	2824
光	2825
tir	2826
ви	2827
leg	2828
▁prima	2829
重	2830
▁part	2831
ato	2832
▁بود	2833
ಕ	2834
▁cara	2835
ਨ	2836
▁dis	2837
▁ਅਤੇ	2838
40	2839
▁’	2840
nem	2841
▁Во	2842
▁also	2843
bra	2844
ര	2845
長	2846
▁bude	2847
bat	2848
▁бол	2849
▁س	2850
ด	2851
ring	2852
لا	2853
dik	2854
▁gran	2855
▁them	2856
▁Ви	2857
▁(1	2858
ล	2859
▁jau	2860
▁7.	2861
ته	2862
▁→	2863
jan	2864
מ	2865
▁mm	2866
▁або	2867
▁права	2868
च्या	2869
gal	2870
су	2871
▁nói	2872
ade	2873
▁anti	2874
fer	2875
ා	2876
▁која	2877
▁parti	2878
面	2879
には	2880
π	2881
ט	2882
ર	2883
ון	2884
ල	2885
able	2886
ama	2887
▁Med	2888
ما	2889
න	2890
▁út	2891
▁vid	2892
чу	2893
ర	2894
nosti	2895
▁sport	2896
َّ	2897
▁στη	2898
؛	2899
▁سر	2900
▁있는	2901
▁Ga	2902
വ	2903
▁បាន	2904
정	2905
▁sul	2906
▁St	2907
ದಲ್ಲಿ	2908
“.	2909
▁მო	2910
▁pode	2911
ர்	2912
ன்	2913
ova	2914
ných	2915
▁már	2916
▁б	2917
▁mange	2918
這	2919
斯	2920
tre	2921
▁च	2922
▁hele	2923
▁telefon	2924
ස්	2925
▁motor	2926
▁cel	2927
く	2928
ید	2929
ებს	2930
▁định	2931
ג	2932
▁năm	2933
▁ይ	2934
这个	2935
▁tid	2936
কে	2937
▁yr	2938
▁המ	2939
and	2940
▁caso	2941
▁Nie	2942
hat	2943
▁लागि	2944
▁Mae	2945
ова	2946
19	2947
▁myös	2948
▁Ny	2949
▁wel	2950
▁seus	2951
ң	2952
?"	2953
元	2954
tro	2955
▁तर	2956
▁zur	2957
ых	2958
ika	2959
ન	2960
以及	2961
mine	2962
他们	2963
▁wenn	2964
▁best	2965
▁czy	2966
▁problem	2967
ça	2968
身	2969
▁aux	2970
kur	2971
ës	2972
▁faire	2973
ల్	2974
▁Ri	2975
ଙ୍କ	2976
▁محمد	2977
ál	2978
▁ଓ	2979
ice	2980
▁ተ	2981
tem	2982
ő	2983
▁можно	2984
生活	2985
ito	2986
▁při	2987
▁sein	2988
▁ამ	2989
થી	2990
▁Ein	2991
▁Bir	2992
▁mor	2993
▁Ter	2994
って	2995
先	2996
企业	2997
▁vad	2998
▁համար	2999
▁Van	3000
ად	3001
▁mutta	3002
▁Cu	3003
▁info	3004
▁yo	3005
▁jsem	3006
си	3007
ለ	3008
車	3009
▁Mas	3010
▁Dit	3011
të	3012
장	3013
て	3014
▁دي	3015
▁gi	3016
▁bor	3017
▁hotel	3018
mme	3019
dur	3020
▁etc	3021
ಸ್	3022
▁ഈ	3023
国	3024
tele	3025
ային	3026
▁questo	3027
▁ал	3028
没有	3029
▁số	3030
issa	3031
대	3032
vy	3033
▁test	3034
din	3035
▁Fa	3036
▁daripada	3037
hy	3038
▁دا	3039
กัน	3040
dra	3041
▁nước	3042
ksi	3043
द	3044
ै	3045
ša	3046
▁كل	3047
▁það	3048
న్	3049
▁É	3050
ləri	3051
▁dolor	3052
▁ነው	3053
ही	3054
tter	3055
▁איז	3056
ല്	3057
ار	3058
▁bare	3059
▁some	3060
▁thế	3061
tt	3062
▁ngày	3063
▁tek	3064
▁Pi	3065
lang	3066
تا	3067
▁및	3068
▁צו	3069
▁هذه	3070
మ	3071
യും	3072
idade	3073
过	3074
ise	3075
▁NA	3076
▁чтобы	3077
ৰ	3078
▁ένα	3079
▁hos	3080
ego	3081
▁stor	3082
▁bilan	3083
▁csak	3084
▁رو	3085
▁ба	3086
▁mình	3087
ء	3088
cho	3089
▁nhân	3090
ც	3091
ص	3092
த்	3093
著	3094
▁moment	3095
▁jî	3096
वा	3097
▁len	3098
▁کند	3099
▁lub	3100
τε	3101
▁hanya	3102
▁한	3103
vor	3104
▁باشد	3105
▁alebo	3106
или	3107
▁لم	3108
▁cui	3109
nost	3110
נו	3111
ige	3112
▁já	3113
▁ru	3114
▁sol	3115
ua	3116
21	3117
▁छन्	3118
ismo	3119
▁פון	3120
zen	3121
Г	3122
已	3123
ś	3124
fu	3125
▁link	3126
କ	3127
▁sistema	3128
▁which	3129
कर	3130
ש	3131
ves	3132
▁kat	3133
eve	3134
tte	3135
路	3136
bit	3137
▁وا	3138
rà	3139
॥	3140
lim	3141
);	3142
▁🙂	3143
▁anos	3144
▁Ad	3145
▁три	3146
▁кои	3147
还	3148
ח	3149
▁может	3150
▁сам	3151
▁yeni	3152
க்கு	3153
บ	3154
dən	3155
게	3156
▁Ab	3157
፤	3158
У	3159
යක්	3160
nika	3161
▁있다	3162
▁ele	3163
▁All	3164
nou	3165
pas	3166
Т	3167
ura	3168
同	3169
▁موضوع	3170
▁pela	3171
至	3172
▁form	3173
▁ڪري	3174
ções	3175
▁veel	3176
▁anak	3177
▁chính	3178
▁ná	3179
pan	3180
qui	3181
内	3182
▁Og	3183
만	3184
ż	3185
▁ეს	3186
nud	3187
▁heeft	3188
▁grande	3189
if	3190
ін	3191
▁hindi	3192
▁fait	3193
ਲ	3194
二	3195
erne	3196
▁gibi	3197
rt	3198
ε	3199
▁etter	3200
▁ти	3201
▁الت	3202
ա	3203
▁м	3204
▁nuo	3205
wan	3206
▁юм	3207
në	3208
▁mund	3209
▁کرنے	3210
所以	3211
▁إ	3212
▁kell	3213
iu	3214
ás	3215
▁уже	3216
▁8.	3217
kk	3218
▁ஒரு	3219
hen	3220
世界	3221
아	3222
τα	3223
▁Este	3224
ಕ್ಕೆ	3225
ру	3226
ే	3227
ыг	3228
▁when	3229
その	3230
ví	3231
sch	3232
▁sangat	3233
▁الذي	3234
نگ	3235
ድ	3236
፡፡	3237
tha	3238
ئ	3239
ec	3240
ग	3241
റ	3242
▁či	3243
▁ça	3244
▁chat	3245
့	3246
ح	3247
बाट	3248
▁make	3249
ി	3250
▁tas	3251
▁150	3252
▁Bar	3253
േ	3254
დ	3255
▁Ik	3256
lega	3257
▁след	3258
2017	3259
▁habe	3260
▁oor	3261
▁masa	3262
tet	3263
▁आज	3264
ย	3265
inin	3266
br	3267
▁mobil	3268
▁uno	3269
作	3270
▁skulle	3271
量	3272
▁є	3273
▁ಮತ್ತು	3274
台	3275
성	3276
ब	3277
▁går	3278
▁માટે	3279
ство	3280
ги	3281
ित	3282
▁ont	3283
car	3284
zy	3285
แล้ว	3286
▁desde	3287
▁Com	3288
త	3289
ía	3290
▁Ji	3291
▁있습니다	3292
▁This	3293
个	3294
▁2006	3295
nica	3296
▁sme	3297
ар	3298
▁model	3299
拉	3300
▁kadar	3301
正	3302
但是	3303
▁koje	3304
▁ing	3305
sam	3306
▁mundo	3307
▁siis	3308
▁́	3309
では	3310
▁By	3311
จะ	3312
▁काम	3313
▁Ju	3314
ри	3315
▁Wa	3316
ове	3317
▁будет	3318
▁tha	3319
▁YA	3320
ць	3321
如	3322
▁Var	3323
物	3324
▁jaar	3325
uz	3326
进行	3327
▁hor	3328
▁súa	3329
▁quod	3330
nega	3331
▁res	3332
▁ће	3333
her	3334
ර	3335
▁Wir	3336
ay	3337
ക്ക	3338
▁එක	3339
▁email	3340
خ	3341
▁Jan	3342
▁στα	3343
发展	3344
▁ការ	3345
य	3346
▁Or	3347
ታ	3348
▁ಅ	3349
▁Lu	3350
▁روز	3351
都是	3352
▁μια	3353
ๆ	3354
ex	3355
ต	3356
▁personal	3357
▁LA	3358
ල්	3359
चे	3360
▁ovat	3361
▁Sam	3362
▁الأ	3363
യുടെ	3364
▁col	3365
rak	3366
服务	3367
än	3368
lí	3369
▁Im	3370
yn	3371
教育	3372
▁ס	3373
▁Та	3374
▁នៅ	3375
ረ	3376
▁એક	3377
ian	3378
ไม่	3379
ท	3380
店	3381
主	3382
▁sistem	3383
▁qe	3384
ス	3385
ті	3386
ies	3387
▁över	3388
તા	3389
dia	3390
▁durante	3391
▁قرار	3392
▁cette	3393
상	3394
▁people	3395
▁म	3396
ত	3397
▁ann	3398
ły	3399
jos	3400
▁ses	3401
▁dé	3402
jar	3403
▁ev	3404
æ	3405
▁quando	3406
ев	3407
ure	3408
▁అ	3409
ить	3410
лар	3411
▁pla	3412
▁01	3413
▁pasi	3414
ಗಳ	3415
▁če	3416
▁შე	3417
▁त	3418
▁Ben	3419
ία	3420
క్	3421
bor	3422
▁Kar	3423
▁bal	3424
▁því	3425
▁وت	3426
▁você	3427
▁tro	3428
ре	3429
▁God	3430
θ	3431
gy	3432
▁рас	3433
▁må	3434
െ	3435
如果	3436
▁semua	3437
▁ned	3438
並	3439
라	3440
▁kata	3441
ip	3442
cer	3443
▁want	3444
▁person	3445
▁የተ	3446
▁id	3447
ando	3448
ü	3449
▁niin	3450
時間	3451
老	3452
▁Va	3453
pro	3454
ым	3455
▁اگر	3456
▁вас	3457
স	3458
via	3459
ವ	3460
ಸ	3461
▁પર	3462
ർ	3463
area	3464
ੇ	3465
nice	3466
har	3467
ਕ	3468
走	3469
▁й	3470
▁durch	3471
▁bak	3472
ket	3473
▁sto	3474
ија	3475
▁moet	3476
▁kontakt	3477
sia	3478
您	3479
▁lu	3480
▁۔	3481
თა	3482
ną	3483
▁الا	3484
▁وقت	3485
▁hon	3486
▁pelo	3487
▁bol	3488
ši	3489
加	3490
▁blev	3491
tä	3492
▁And	3493
ити	3494
তে	3495
▁כ	3496
나	3497
▁ہیں۔	3498
▁Вы	3499
ού	3500
▁than	3501
▁val	3502
ست	3503
▁गर्न	3504
▁быть	3505
tud	3506
લ	3507
德	3508
set	3509
▁baru	3510
▁तथा	3511
▁Па	3512
▁mana	3513
▁gre	3514
白	3515
же	3516
वि	3517
▁سي	3518
▁Iz	3519
తో	3520
cio	3521
ob	3522
▁נ	3523
口	3524
▁new	3525
ста	3526
taan	3527
▁ak	3528
▁gia	3529
▁bio	3530
▁còn	3531
има	3532
▁esse	3533
ການ	3534
▁hand	3535
ਾ	3536
▁ré	3537
ρ	3538
ပါ	3539
▁cap	3540
▁jos	3541
▁were	3542
ojn	3543
лық	3544
▁Ob	3545
▁zi	3546
▁მე	3547
یم	3548
▁есть	3549
uta	3550
▁land	3551
▁biti	3552
▁essere	3553
▁वि	3554
▁100%	3555
ونه	3556
▁nije	3557
ि	3558
100	3559
▁noi	3560
▁Pu	3561
▁wil	3562
▁години	3563
▁end	3564
▁secara	3565
▁Á	3566
së	3567
▁dr	3568
▁9.	3569
ં	3570
bal	3571
▁hulle	3572
▁але	3573
▁Mit	3574
원	3575
▁2000	3576
▁бо	3577
▁nella	3578
▁എന്ന	3579
▁Н	3580
och	3581
ու	3582
▁તો	3583
fo	3584
owych	3585
安	3586
▁hur	3587
從	3588
日本	3589
්	3590
▁muy	3591
▁pm	3592
վել	3593
▁momento	3594
tura	3595
▁Mai	3596
ela	3597
nti	3598
▁eru	3599
▁gün	3600
▁ipsum	3601
ime	3602
▁nou	3603
სა	3604
▁Malaysia	3605
ول	3606
եր	3607
▁Š	3608
nut	3609
▁Twitter	3610
end	3611
ല	3612
wo	3613
부	3614
感	3615
▁anh	3616
ados	3617
vet	3618
この	3619
▁ora	3620
▁Sex	3621
▁total	3622
▁sehr	3623
区	3624
開	3625
▁전	3626
▁tom	3627
▁muito	3628
sie	3629
one	3630
चा	3631
ilor	3632
▁mới	3633
▁गर्ने	3634
лу	3635
▁čo	3636
ൻ	3637
▁normal	3638
በ	3639
▁2019	3640
ดี	3641
▁how	3642
▁jam	3643
▁ທີ່	3644
ії	3645
▁mest	3646
▁base	3647
▁nå	3648
的人	3649
▁$	3650
▁себе	3651
▁izan	3652
▁हे	3653
نے	3654
▁کنید	3655
ული	3656
▁ere	3657
▁Mal	3658
트	3659
ія	3660
▁projekt	3661
▁آپ	3662
▁ಆ	3663
▁ok	3664
화	3665
ros	3666
det	3667
lag	3668
▁към	3669
ско	3670
▁gar	3671
ē	3672
ची	3673
ted	3674
til	3675
etan	3676
ovi	3677
unk	3678
ris	3679
ão	3680
▁Ш	3681
નું	3682
eren	3683
▁မ	3684
▁پی	3685
ு	3686
▁place	3687
▁here	3688
ట్	3689
▁प्र	3690
▁「	3691
▁Kon	3692
▁два	3693
原	3694
▁vill	3695
ča	3696
▁بار	3697
▁Fi	3698
▁время	3699
▁dann	3700
rar	3701
▁még	3702
lé	3703
ගේ	3704
▁ہی	3705
▁پیش	3706
▁п	3707
過	3708
▁просто	3709
▁które	3710
▁nó	3711
ор	3712
▁hơn	3713
▁know	3714
车	3715
mes	3716
▁neu	3717
ি	3718
lam	3719
ità	3720
▁shumë	3721
▁pol	3722
lv	3723
▁એ	3724
▁san	3725
▁Islam	3726
▁savo	3727
▁godt	3728
ře	3729
品	3730
▁Los	3731
▁право	3732
▁porno	3733
ови	3734
жа	3735
ց	3736
ог	3737
▁после	3738
▁comme	3739
лік	3740
▁ή	3741
23	3742
▁Из	3743
国家	3744
呢	3745
▁ٿي	3746
▁EU	3747
ová	3748
▁mare	3749
▁seo	3750
▁Ch	3751
機	3752
▁Ал	3753
▁απο	3754
▁خان	3755
▁ако	3756
▁porque	3757
▁قبل	3758
无	3759
vit	3760
적	3761
▁schon	3762
▁Việt	3763
▁ඇති	3764
▁साथ	3765
tul	3766
shi	3767
27	3768
ல்	3769
த்த	3770
tti	3771
ır	3772
▁Windows	3773
гүй	3774
▁Non	3775
전	3776
▁հետ	3777
▁wordt	3778
定	3779
▁גם	3780
тан	3781
ս	3782
▁ਲਈ	3783
vol	3784
월	3785
▁Ze	3786
▁nye	3787
▁polo	3788
▁other	3789
▁theo	3790
யில்	3791
▁modo	3792
larda	3793
get	3794
ную	3795
mon	3796
▁â	3797
xa	3798
▁Indonesia	3799
它	3800
ती	3801
യില്	3802
位	3803
▁lai	3804
▁Pas	3805
вер	3806
▁immer	3807
▁ਵਿੱਚ	3808
▁nên	3809
▁Så	3810
▁sinh	3811
idad	3812
▁था	3813
far	3814
dom	3815
▁giá	3816
▁både	3817
av	3818
ουν	3819
▁fe	3820
▁той	3821
▁hợp	3822
П	3823
點	3824
ciones	3825
tori	3826
dis	3827
ນ	3828
▁waar	3829
▁baik	3830
▁cả	3831
▁نا	3832
ብ	3833
ius	3834
▁public	3835
ије	3836
▁которые	3837
ott	3838
▁thực	3839
▁kam	3840
ይ	3841
സ	3842
▁08	3843
ал	3844
▁године	3845
长	3846
▁Film	3847
▁бир	3848
ह	3849
局	3850
ራ	3851
▁baş	3852
▁even	3853
▁são	3854
lə	3855
可能	3856
▁autor	3857
▁От	3858
▁zaman	3859
▁tuo	3860
ਸ	3861
▁vin	3862
▁ch	3863
▁pos	3864
▁despre	3865
▁mesmo	3866
▁Α	3867
▁På	3868
▁mult	3869
▁elit	3870
▁need	3871
▁ද	3872
ил	3873
▁მ	3874
ป	3875
▁merupakan	3876
▁ana	3877
头	3878
▁día	3879
▁කර	3880
ෙන්	3881
28	3882
വും	3883
▁put	3884
▁افغانستان	3885
▁sana	3886
王	3887
Х	3888
या	3889
!"	3890
西	3891
ില്	3892
美国	3893
▁09	3894
万	3895
heid	3896
自己的	3897
跟	3898
▁hebben	3899
▁trans	3900
ovať	3901
vá	3902
▁lý	3903
▁vý	3904
▁Hy	3905
тэй	3906
ак	3907
利	3908
通	3909
▁аб	3910
ido	3911
▁33	3912
▁све	3913
ող	3914
ham	3915
▁siden	3916
▁way	3917
ด้วย	3918
▁programa	3919
▁этом	3920
nju	3921
ano	3922
gas	3923
明	3924
▁меня	3925
▁там	3926
▁दिन	3927
▁ме	3928
ori	3929
miz	3930
cm	3931
▁onder	3932
让	3933
▁into	3934
tat	3935
▁¿	3936
வ	3937
adi	3938
▁Euro	3939
▁joka	3940
▁nào	3941
林	3942
ಮ	3943
▁לי	3944
lara	3945
▁भारत	3946
▁ת	3947
▁bon	3948
%	3949
▁där	3950
讓	3951
▁Android	3952
ಲ್	3953
发	3954
▁پ	3955
nce	3956
The	3957
php	3958
▁cách	3959
art	3960
▁lite	3961
rah	3962
▁kunne	3963
gr	3964
▁finns	3965
ରୁ	3966
▁rất	3967
▁janë	3968
▁باید	3969
▁Kor	3970
▁(4)	3971
▁harus	3972
ár	3973
▁Europa	3974
▁https	3975
မ်ား	3976
▁kir	3977
▁În	3978
بر	3979
▁Car	3980
▁ре	3981
یں	3982
でも	3983
iva	3984
合	3985
lige	3986
克	3987
ф	3988
▁sản	3989
已经	3990
రి	3991
▁هي	3992
▁unter	3993
▁Ut	3994
Н	3995
tri	3996
ая	3997
ලා	3998
소	3999
▁local	4000
▁poate	4001
▁Web	4002
▁كان	4003
▁vie	4004
▁ਨਾਲ	4005
▁chúng	4006
mit	4007
τ	4008
▁çox	4009
री	4010
吃	4011
▁مي	4012
▁saja	4013
▁godine	4014
22	4015
政府	4016
endo	4017
ый	4018
лер	4019
見	4020
ong	4021
▁biết	4022
ನ್	4023
▁dira	4024
چ	4025
З	4026
▁app	4027
dd	4028
▁किया	4029
▁ante	4030
▁nebo	4031
use	4032
진	4033
▁start	4034
各	4035
ero	4036
श	4037
ება	4038
▁36	4039
▁بين	4040
ร	4041
▁мне	4042
ino	4043
maan	4044
ому	4045
26	4046
ሳ	4047
ної	4048
▁him	4049
▁करने	4050
▁αν	4051
▁andere	4052
▁mich	4053
▁دارد	4054
▁така	4055
▁Со	4056
▁acest	4057
学	4058
ያ	4059
▁суд	4060
▁Pra	4061
▁gì	4062
bel	4063
غا	4064
▁සහ	4065
ք	4066
▁pris	4067
▁10.	4068
▁điều	4069
▁pola	4070
▁tego	4071
қа	4072
▁atas	4073
▁כי	4074
▁ໃນ	4075
▁կ	4076
▁wieder	4077
▁2005	4078
vas	4079
▁गरेको	4080
ություն	4081
▁400	4082
▁pr	4083
ix	4084
▁ක්	4085
lis	4086
드	4087
በት	4088
ਮ	4089
▁mint	4090
ী	4091
▁free	4092
ët	4093
σ	4094
ത്തില്	4095
nú	4096
hr	4097
▁yer	4098
▁très	4099
sar	4100
▁frá	4101
▁ده	4102
▁jej	4103
▁tanto	4104
▁problema	4105
වා	4106
ຂອງ	4107
є	4108
▁temps	4109
▁só	4110
ül	4111
▁יש	4112
ע	4113
中心	4114
▁nr	4115
اس	4116
ación	4117
期	4118
anta	4119
ката	4120
四	4121
▁mid	4122
ās	4123
▁nun	4124
ಗಳನ್ನು	4125
ved	4126
▁good	4127
▁έχει	4128
▁Apple	4129
している	4130
2016	4131
ган	4132
ክ	4133
bre	4134
из	4135
▁cookies	4136
▁nya	4137
頭	4138
▁يا	4139
▁barn	4140
▁بي	4141
▁تم	4142
▁Ur	4143
ବ	4144
▁سی	4145
▁Met	4146
▁saj	4147
▁daar	4148
▁ये	4149
太	4150
▁דער	4151
▁2018.	4152
In	4153
▁görə	4154
▁ger	4155
동	4156
▁cele	4157
nici	4158
ног	4159
orum	4160
▁ਤੇ	4161
ങ്ങള്	4162
▁got	4163
kt	4164
▁website	4165
isti	4166
ும்	4167
▁estis	4168
近	4169
ée	4170
▁Can	4171
liga	4172
▁extra	4173
▁alles	4174
ዎች	4175
ว	4176
pun	4177
▁vos	4178
ით	4179
▁wurde	4180
▁kor	4181
ら	4182
神	4183
ер	4184
开	4185
ώ	4186
Е	4187
ges	4188
▁Copyright	4189
▁weer	4190
▁vas	4191
▁यो	4192
▁ර	4193
▁thời	4194
ರ್	4195
ede	4196
▁nag	4197
ম	4198
▁لیے	4199
hal	4200
ής	4201
▁wedi	4202
▁pel	4203
ett	4204
war	4205
▁kaip	4206
eri	4207
▁вам	4208
ering	4209
▁--	4210
▁Min	4211
ಾ	4212
▁vet	4213
ตัว	4214
▁kal	4215
rd	4216
ák	4217
▁لاء	4218
वर	4219
區	4220
▁Fe	4221
▁когда	4222
bus	4223
▁gra	4224
▁thông	4225
▁ر	4226
jer	4227
▁Una	4228
▁То	4229
య	4230
▁י	4231
內	4232
Se	4233
owy	4234
29	4235
ማ	4236
▁samt	4237
▁bahwa	4238
▁यह	4239
ef	4240
eta	4241
larını	4242
▁ktoré	4243
osa	4244
▁kuin	4245
▁Sed	4246
▁importante	4247
▁rad	4248
jet	4249
વ	4250
▁пад	4251
▁Tur	4252
면	4253
▁tá	4254
▁nhưng	4255
ию	4256
▁gibt	4257
问题	4258
το	4259
ความ	4260
:“	4261
▁sun	4262
▁If	4263
也是	4264
▁Super	4265
inu	4266
▁Pen	4267
▁kama	4268
▁ג	4269
▁aki	4270
▁fast	4271
▁nec	4272
ré	4273
비	4274
▁دې	4275
ాలు	4276
▁آهن	4277
文化	4278
တာ	4279
当	4280
ком	4281
ე	4282
500	4283
ibus	4284
гі	4285
дер	4286
ാന്	4287
int	4288
▁iPhone	4289
使	4290
ného	4291
▁σας	4292
ley	4293
▁ა	4294
rs	4295
▁очень	4296
ور	4297
أ	4298
pad	4299
eni	4300
ници	4301
▁lei	4302
▁استفاده	4303
▁ilk	4304
ovat	4305
нето	4306
▁tr	4307
▁нај	4308
▁tipo	4309
▁cơ	4310
▁Sen	4311
යේ	4312
stu	4313
▁უ	4314
▁masih	4315
▁ك	4316
▁1-	4317
И	4318
▁haar	4319
ير	4320
一些	4321
▁आप	4322
▁wo	4323
▁ക	4324
一個	4325
mir	4326
nta	4327
▁Ма	4328
▁մի	4329
▁بل	4330
▁design	4331
Re	4332
لو	4333
▁една	4334
ві	4335
▁WA	4336
▁който	4337
▁Eesti	4338
թ	4339
õ	4340
ora	4341
ena	4342
▁store	4343
▁Alle	4344
▁ਤੋਂ	4345
▁meu	4346
▁May	4347
jon	4348
ونو	4349
▁його	4350
▁عمل	4351
▁bilo	4352
lit	4353
ется	4354
lık	4355
▁Ж	4356
▁yg	4357
▁help	4358
ህ	4359
▁même	4360
希望	4361
市场	4362
▁ማ	4363
▁gör	4364
ก็	4365
▁uchun	4366
▁več	4367
▁Hai	4368
$	4369
oni	4370
iv	4371
▁peut	4372
▁trường	4373
▁svoje	4374
▁toe	4375
▁സ്	4376
्	4377
▁Pan	4378
色	4379
ló	4380
▁olla	4381
▁1000	4382
zer	4383
stan	4384
▁être	4385
ան	4386
▁был	4387
大家	4388
ಲು	4389
of	4390
ija	4391
▁شهر	4392
▁full	4393
▁اما	4394
才	4395
▁Auto	4396
https	4397
can	4398
ذ	4399
▁нам	4400
сь	4401
愛	4402
산	4403
▁беше	4404
▁байгаа	4405
▁кон	4406
▁badan	4407
▁geen	4408
▁κ	4409
▁ۋە	4410
個	4411
juk	4412
ተ	4413
▁επι	4414
नी	4415
▁Ez	4416
▁cao	4417
研究	4418
▁moi	4419
▁back	4420
▁στον	4421
▁Jak	4422
▁през	4423
▁uw	4424
服務	4425
▁<	4426
▁сте	4427
▁Đ	4428
▁ते	4429
▁pār	4430
ande	4431
ms	4432
ować	4433
▁kl	4434
iste	4435
ทาง	4436
▁δια	4437
ast	4438
cs	4439
▁Kom	4440
公	4441
▁34	4442
▁чи	4443
▁kort	4444
don	4445
ске	4446
▁koja	4447
tr	4448
▁xe	4449
thi	4450
gang	4451
▁gr	4452
pat	4453
▁แต่	4454
▁quam	4455
▁Հ	4456
商	4457
nan	4458
▁із	4459
cat	4460
tzeko	4461
▁buvo	4462
▁ያ	4463
asa	4464
次	4465
▁στις	4466
受	4467
най	4468
он	4469
ô	4470
cí	4471
▁عليه	4472
▁Tá	4473
▁suo	4474
▁flere	4475
▁лет	4476
▁tij	4477
lak	4478
▁também	4479
▁না	4480
▁اپنے	4481
бо	4482
▁anni	4483
ק	4484
щи	4485
▁bod	4486
▁lugar	4487
▁work	4488
સ	4489
ම්	4490
社会	4491
ോ	4492
ത്ത	4493
▁lên	4494
▁თუ	4495
▁ਸਿੰਘ	4496
▁lagu	4497
▁vis	4498
▁αλλά	4499
▁მი	4500
tiva	4501
吧	4502
sson	4503
▁disse	4504
hin	4505
▁bardzo	4506
▁भने	4507
▁л	4508
▁року	4509
రు	4510
通过	4511
▁Dia	4512
▁Kung	4513
mor	4514
ui	4515
▁service	4516
ep	4517
▁Ru	4518
дын	4519
▁38	4520
▁tylko	4521
▁ata	4522
ella	4523
ore	4524
書	4525
tia	4526
▁use	4527
非常	4528
▁ég	4529
▁էր	4530
▁Он	4531
tje	4532
▁طرح	4533
jes	4534
▁goed	4535
▁προ	4536
▁general	4537
arna	4538
▁dom	4539
▁zona	4540
▁11.	4541
isa	4542
ਣ	4543
ности	4544
dem	4545
▁khác	4546
шы	4547
ம	4548
▁až	4549
▁გამო	4550
ர	4551
▁very	4552
▁треба	4553
▁эле	4554
ደ	4555
▁μου	4556
টি	4557
цы	4558
▁sala	4559
▁Ф	4560
ното	4561
▁ма	4562
czy	4563
▁kali	4564
▁Ei	4565
▁تھا	4566
▁radi	4567
▁last	4568
▁ج	4569
▁đồng	4570
▁hu	4571
▁48	4572
▁آ	4573
ente	4574
ஸ்	4575
ությունը	4576
▁এ	4577
因	4578
不是	4579
lama	4580
mek	4581
▁jsou	4582
чы	4583
구	4584
ቱ	4585
▁aos	4586
▁وم	4587
age	4588
▁pret	4589
▁صورت	4590
▁tapi	4591
▁मा	4592
▁beliau	4593
post	4594
tų	4595
ação	4596
ator	4597
60	4598
▁ban	4599
▁đây	4600
μα	4601
▁USA	4602
▁viên	4603
ਤੇ	4604
ស	4605
nun	4606
ndi	4607
ες	4608
▁hình	4609
▁meget	4610
▁cas	4611
▁Star	4612
Ma	4613
▁vam	4614
eu	4615
▁apie	4616
南	4617
▁ima	4618
▁Это	4619
▁bank	4620
▁hoe	4621
型	4622
▁प	4623
卡	4624
owa	4625
bet	4626
▁ito	4627
ете	4628
▁няма	4629
▁sia	4630
မွာ	4631
▁już	4632
45	4633
▁හා	4634
第	4635
▁שה	4636
დი	4637
ក	4638
φ	4639
ында	4640
▁ее	4641
▁gang	4642
▁mycket	4643
ını	4644
Na	4645
▁kale	4646
▁نہ	4647
▁02	4648
▁което	4649
ym	4650
တ	4651
ych	4652
ща	4653
제	4654
▁pli	4655
ቀ	4656
De	4657
ෙ	4658
▁iş	4659
▁جس	4660
▁İ	4661
▁gali	4662
送	4663
▁هڪ	4664
uma	4665
▁//	4666
ך	4667
ൽ	4668
▁37	4669
lerin	4670
意	4671
ад	4672
因为	4673
တဲ့	4674
▁تک	4675
▁га	4676
▁information	4677
▁nova	4678
tua	4679
por	4680
▁poder	4681
бы	4682
▁deur	4683
ют	4684
ಲ	4685
▁mula	4686
▁She	4687
erna	4688
lum	4689
▁może	4690
া	4691
pre	4692
▁besar	4693
վում	4694
流	4695
目前	4696
▁Kas	4697
ност	4698
▁Tri	4699
▁(2	4700
గ	4701
▁नेपाल	4702
▁чем	4703
kla	4704
▁así	4705
▁Sport	4706
mana	4707
▁እ	4708
κ	4709
εί	4710
index	4711
ላ	4712
▁Art	4713
ني	4714
活動	4715
ነት	4716
pur	4717
▁enim	4718
▁07	4719
▁2-	4720
सी	4721
ፍ	4722
数	4723
▁đang	4724
ー	4725
rio	4726
▁Mac	4727
▁ਇਸ	4728
aga	4729
?!	4730
ká	4731
▁HD	4732
▁Ale	4733
▁only	4734
▁هن	4735
ына	4736
▁д	4737
▁forum	4738
ँ	4739
▁kap	4740
城	4741
体	4742
▁due	4743
ých	4744
ish	4745
▁vụ	4746
▁cô	4747
▁नाही	4748
▁gal	4749
୍	4750
▁jadi	4751
▁zen	4752
сан	4753
«	4754
▁partner	4755
ଲ	4756
ér	4757
ク	4758
lon	4759
ља	4760
▁حال	4761
ନ	4762
ക്ക്	4763
▁Read	4764
''	4765
给	4766
??	4767
▁еще	4768
▁Val	4769
▁cùng	4770
快	4771
▁Hal	4772
▁iar	4773
ши	4774
תי	4775
chu	4776
▁05	4777
ys	4778
▁මම	4779
▁ជា	4780
ति	4781
▁quae	4782
▁rok	4783
▁multe	4784
▁bit	4785
▁kai	4786
▁pare	4787
安全	4788
▁ты	4789
وي	4790
相	4791
▁Top	4792
larının	4793
▁Media	4794
ай	4795
▁tutti	4796
▁tư	4797
ую	4798
ግ	4799
還	4800
щ	4801
γ	4802
dig	4803
▁Tre	4804
▁Если	4805
med	4806
še	4807
нын	4808
▁primer	4809
▁Türkiye	4810
ವನ್ನು	4811
▁heb	4812
tá	4813
低	4814
▁Son	4815
▁historia	4816
▁tie	4817
』	4818
لىق	4819
▁ise	4820
▁2004	4821
ব	4822
amente	4823
▁gir	4824
▁ਕਿ	4825
▁кој	4826
▁تمام	4827
▁42	4828
▁mun	4829
▁III	4830
▁BBC	4831
▁ذلك	4832
▁гэж	4833
chen	4834
ା	4835
80	4836
▁Tag	4837
▁אַ	4838
▁Π	4839
دى	4840
▁Cha	4841
▁red	4842
▁Sy	4843
тен	4844
▁مان	4845
ण	4846
▁këtë	4847
any	4848
▁अब	4849
ಕ್	4850
▁где	4851
ז	4852
дин	4853
ev	4854
▁Vor	4855
ంగా	4856
▁Download	4857
▁vom	4858
▁55	4859
▁Din	4860
sy	4861
ून	4862
▁ساتھ	4863
ல	4864
▁What	4865
▁един	4866
log	4867
́	4868
▁Nem	4869
女	4870
yê	4871
▁რა	4872
ారు	4873
▁prie	4874
த	4875
ও	4876
▁등	4877
xe	4878
▁1)	4879
▁06	4880
પ	4881
▁diese	4882
▁մասին	4883
▁kunnen	4884
▁upang	4885
▁ପାଇଁ	4886
▁Wie	4887
ക്	4888
▁fare	4889
▁mae	4890
▁можна	4891
▁אני	4892
▁hành	4893
▁کہا	4894
oz	4895
este	4896
ί	4897
▁porta	4898
▁bukan	4899
siz	4900
зи	4901
ff	4902
▁paano	4903
#	4904
يه	4905
่	4906
▁други	4907
▁Av	4908
▁nes	4909
▁Як	4910
▁thu	4911
▁material	4912
▁thấy	4913
دار	4914
▁ໄດ້	4915
nego	4916
很多	4917
ప	4918
▁وجود	4919
nı	4920
ieren	4921
sky	4922
imin	4923
▁које	4924
▁hvis	4925
▁membuat	4926
▁art	4927
ką	4928
▁até	4929
ன	4930
何	4931
▁Bank	4932
ín	4933
ട	4934
tive	4935
▁cần	4936
▁Tra	4937
▁degli	4938
▁John	4939
問題	4940
该	4941
şi	4942
▁però	4943
כ	4944
大学	4945
▁Так	4946
ход	4947
▁75	4948
▁ingen	4949
▁bas	4950
▁نمی	4951
▁noen	4952
▁vers	4953
▁Yang	4954
發	4955
▁beberapa	4956
ਤ	4957
▁2)	4958
ທີ່	4959
▁Cho	4960
▁Som	4961
lá	4962
నే	4963
▁allt	4964
科	4965
▁But	4966
▁فى	4967
раз	4968
berg	4969
sor	4970
▁vita	4971
▁timbang	4972
يات	4973
ነ	4974
▁Í	4975
▁obra	4976
▁doen	4977
ु	4978
▁আ	4979
▁نو	4980
▁dua	4981
يت	4982
ské	4983
ጋ	4984
▁тоа	4985
ische	4986
▁была	4987
▁против	4988
▁long	4989
▁وی	4990
▁också	4991
▁კი	4992
▁जो	4993
pis	4994
ض	4995
rii	4996
▁Next	4997
▁ol	4998
▁није	4999
▁ಎಂದು	5000
这些	5001
ων	5002
眼	5003
ман	5004
▁menos	5005
▁जा	5006
pal	5007
▁jih	5008
▁trình	5009
▁અ	5010
की	5011
inde	5012
бу	5013
wy	5014
▁gå	5015
31	5016
▁För	5017
▁Een	5018
kr	5019
學	5020
No	5021
nə	5022
▁گیا	5023
▁Che	5024
▁Hindi	5025
▁можете	5026
▁వి	5027
یت	5028
▁ගැන	5029
▁Vy	5030
▁nhận	5031
器	5032
ണ	5033
▁sử	5034
▁12.	5035
▁now	5036
form	5037
stvo	5038
90	5039
ዳ	5040
વા	5041
اب	5042
lja	5043
▁tv	5044
▁much	5045
99	5046
יות	5047
▁ανα	5048
▁عام	5049
선	5050
線	5051
技术	5052
工	5053
▁ville	5054
த்தில்	5055
rie	5056
vé	5057
▁также	5058
▁há	5059
▁حکومت	5060
▁Blog	5061
like	5062
▁сме	5063
▁Til	5064
owej	5065
pie	5066
ია	5067
▁›	5068
تر	5069
信	5070
isme	5071
sim	5072
ean	5073
▁Для	5074
ರಿ	5075
zel	5076
ligt	5077
▁loo	5078
β	5079
▁duke	5080
▁ق	5081
▁सरकार	5082
tim	5083
som	5084
知	5085
▁مو	5086
ový	5087
њу	5088
Л	5089
ры	5090
▁Қазақстан	5091
ικό	5092
▁वा	5093
▁sch	5094
jam	5095
ակ	5096
ité	5097
▁03	5098
▁බව	5099
尔	5100
▁mens	5101
치	5102
▁partir	5103
એ	5104
ват	5105
▁''	5106
▁años	5107
▁طرف	5108
▁αυτό	5109
▁וב	5110
▁jer	5111
స	5112
▁живот	5113
İ	5114
vil	5115
ث	5116
▁first	5117
▁гэта	5118
ника	5119
▁Real	5120
▁diri	5121
▁hin	5122
သ	5123
▁бе	5124
bb	5125
約	5126
▁Σ	5127
pin	5128
▁fri	5129
mur	5130
▁ຂອງ	5131
▁persona	5132
率	5133
xi	5134
ени	5135
▁todas	5136
五	5137
▁более	5138
動	5139
▁Wi	5140
ува	5141
▁hann	5142
片	5143
요	5144
ые	5145
能力	5146
ા	5147
情	5148
▁tej	5149
ام	5150
sid	5151
▁phát	5152
▁Free	5153
▁say	5154
▁day	5155
▁ወደ	5156
▁مورد	5157
ડ	5158
▁før	5159
▁vse	5160
▁love	5161
▁jika	5162
vä	5163
dat	5164
stand	5165
нд	5166
▁ग	5167
▁será	5168
还是	5169
ces	5170
▁puede	5171
▁היא	5172
▁(19	5173
▁Gi	5174
▁سایت	5175
isto	5176
▁Eu	5177
▁nyt	5178
▁trước	5179
ings	5180
▁क	5181
します	5182
cji	5183
▁بین	5184
▁ដែល	5185
የ	5186
▁Как	5187
▁Об	5188
▁suis	5189
ելու	5190
된	5191
лан	5192
▁እንደ	5193
urile	5194
▁ब	5195
版	5196
ico	5197
▁Foto	5198
▁करें	5199
ڻ	5200
▁main	5201
▁إن	5202
▁nje	5203
cht	5204
▁کرده	5205
▁aussi	5206
要求	5207
▁tự	5208
▁Ми	5209
▁Ε	5210
▁(5)	5211
ਰ	5212
▁sp	5213
▁vår	5214
ím	5215
Я	5216
▁minden	5217
▁tiek	5218
▁mang	5219
▁bere	5220
Ш	5221
kke	5222
▁līdz	5223
▁सु	5224
▁pus	5225
取	5226
▁Park	5227
▁گفت	5228
jú	5229
超	5230
ската	5231
itas	5232
tí	5233
sini	5234
лю	5235
dha	5236
▁නම්	5237
▁kimi	5238
▁firma	5239
stva	5240
▁유	5241
ครับ	5242
▁välja	5243
▁ker	5244
ons	5245
lje	5246
▁والم	5247
นั้น	5248
▁اند	5249
现在	5250
▁Са	5251
hed	5252
▁కూడా	5253
▁kiel	5254
▁លោក	5255
tions	5256
▁egin	5257
▁sitten	5258
lay	5259
代	5260
▁ที่	5261
▁første	5262
▁ami	5263
nym	5264
▁دیگر	5265
▁със	5266
Le	5267
▁सा	5268
▁andra	5269
ட்	5270
వి	5271
raz	5272
يل	5273
రా	5274
▁Në	5275
▁2017.	5276
▁rin	5277
ई	5278
▁kg	5279
ස	5280
sed	5281
▁Was	5282
ル	5283
ában	5284
сын	5285
ntes	5286
場	5287
▁sendiri	5288
▁bem	5289
▁ଏହି	5290
省	5291
不能	5292
pri	5293
教	5294
ву	5295
而且	5296
▁buat	5297
ხ	5298
▁well	5299
ће	5300
신	5301
▁seorang	5302
▁list	5303
▁tentang	5304
nio	5305
▁serta	5306
▁před	5307
▁них	5308
▁memiliki	5309
pel	5310
▁។	5311
机	5312
ช	5313
ση	5314
▁НА	5315
▁250	5316
▁buhok	5317
ట	5318
▁شي	5319
zia	5320
▁onde	5321
▁ش	5322
හ	5323
▁bus	5324
▁été	5325
▁ia	5326
മായ	5327
▁народ	5328
▁cấp	5329
ola	5330
bud	5331
▁ע	5332
▁sz	5333
▁کشور	5334
▁իր	5335
▁క	5336
▁Inter	5337
▁તે	5338
▁molt	5339
▁meng	5340
▁съ	5341
vik	5342
TV	5343
只	5344
▁Air	5345
▁Vo	5346
вы	5347
okat	5348
▁गया	5349
ប	5350
▁think	5351
ნი	5352
因此	5353
▁وأ	5354
▁jeho	5355
រ	5356
2015	5357
용	5358
▁país	5359
▁§	5360
▁special	5361
▁mei	5362
▁خبر	5363
真	5364
▁dire	5365
▁नि	5366
▁sing	5367
▁home	5368
▁years	5369
站	5370
▁sammen	5371
cher	5372
▁نیز	5373
lü	5374
▁Kur	5375
▁tao	5376
▁SA	5377
ാണ്	5378
▁Maria	5379
oi	5380
▁pala	5381
的时候	5382
ڪ	5383
包括	5384
ság	5385
gt	5386
xo	5387
▁uso	5388
▁Hier	5389
▁120	5390
ಟ್	5391
式	5392
مان	5393
usta	5394
გ	5395
▁vì	5396
ない	5397
▁kup	5398
▁کسی	5399
▁dalla	5400
ування	5401
▁dir	5402
▁nghiệp	5403
▁Če	5404
▁ውስጥ	5405
▁Ser	5406
อ	5407
pet	5408
▁प्रदेश	5409
利用	5410
经济	5411
信息	5412
ಗ	5413
ி	5414
▁ide	5415
pon	5416
▁یو	5417
▁රී	5418
▁DI	5419
ൂ	5420
▁Pod	5421
▁ces	5422
▁set	5423
nä	5424
ins	5425
▁system	5426
டி	5427
-2	5428
wr	5429
ገ	5430
▁ime	5431
▁중	5432
för	5433
▁этого	5434
▁کم	5435
elor	5436
▁خ	5437
▁teh	5438
▁arasında	5439
title	5440
▁lalu	5441
2.	5442
▁Ex	5443
國	5444
rang	5445
▁sí	5446
eks	5447
ટ	5448
ныя	5449
▁उ	5450
▁มี	5451
▁pul	5452
mise	5453
▁Tr	5454
▁More	5455
▁tres	5456
jal	5457
▁Ban	5458
▁perlu	5459
▁leur	5460
▁طور	5461
bile	5462
ική	5463
Sa	5464
over	5465
▁sekä	5466
ğ	5467
stä	5468
▁सं	5469
▁contact	5470
dh	5471
▁cái	5472
米	5473
▁novo	5474
http	5475
했다	5476
时间	5477
▁არის	5478
▁nagy	5479
డ	5480
stad	5481
гу	5482
像	5483
▁fara	5484
▁kamu	5485
lich	5486
▁سو	5487
കള്	5488
▁Aus	5489
qu	5490
▁br	5491
▁Wy	5492
▁mặt	5493
▁Л	5494
ዋ	5495
ご	5496
沒有	5497
qa	5498
▁onze	5499
न्	5500
▁tele	5501
▁Zeit	5502
▁ہم	5503
▁spre	5504
火	5505
▁Де	5506
▁করে	5507
kki	5508
ное	5509
ost	5510
平	5511
▁ky	5512
ním	5513
бе	5514
kka	5515
tina	5516
cija	5517
vid	5518
ች	5519
請	5520
দের	5521
ト	5522
▁Македонија	5523
ić	5524
集	5525
▁important	5526
▁tim	5527
ava	5528
▁یې	5529
▁då	5530
▁Ten	5531
▁год	5532
▁Und	5533
রা	5534
▁ry	5535
čka	5536
▁الع	5537
▁kwenye	5538
▁മ	5539
ség	5540
▁شرکت	5541
▁hafa	5542
▁hasta	5543
lash	5544
mai	5545
など	5546
▁Pour	5547
ich	5548
▁Οι	5549
▁War	5550
▁pen	5551
▁деген	5552
ሰ	5553
ውን	5554
▁olduğu	5555
zie	5556
else	5557
▁kanë	5558
国际	5559
▁Ре	5560
▁Ц	5561
▁nás	5562
▁Untuk	5563
▁अपने	5564
tio	5565
▁salah	5566
▁უნდა	5567
▁mam	5568
եց	5569
▁standard	5570
▁sebuah	5571
ած	5572
стан	5573
ます	5574
▁aga	5575
명	5576
▁eða	5577
▁khách	5578
ší	5579
▁ក្នុង	5580
▁Des	5581
▁article	5582
▁nii	5583
all	5584
▁Chi	5585
▁Plan	5586
▁năng	5587
▁کریں	5588
rad	5589
دىن	5590
▁niya	5591
▁ту	5592
ими	5593
יה	5594
▁sou	5595
▁India	5596
มาก	5597
▁svar	5598
▁Las	5599
tivo	5600
uan	5601
▁हा	5602
▁មាន	5603
▁ý	5604
▁sehingga	5605
▁39	5606
▁අ	5607
▁should	5608
▁side	5609
其他	5610
istä	5611
lib	5612
star	5613
▁maj	5614
立	5615
ünk	5616
ሉ	5617
▁fie	5618
niu	5619
മായി	5620
▁دست	5621
▁date	5622
▁spa	5623
▁rumah	5624
dı	5625
▁ი	5626
tó	5627
▁Κ	5628
ээ	5629
▁sai	5630
▁Cor	5631
ଳ	5632
nden	5633
▁کنند	5634
ద	5635
day	5636
▁leis	5637
த்து	5638
▁fu	5639
▁będzie	5640
▁один	5641
зна	5642
▁сайт	5643
▁asi	5644
미	5645
▁take	5646
လ	5647
▁lá	5648
▁ප	5649
ٰ	5650
▁ਸ	5651
看到	5652
ቅ	5653
ಯಲ್ಲಿ	5654
▁Au	5655
▁bağlı	5656
ባ	5657
ının	5658
▁App	5659
▁туралы	5660
▁tua	5661
▁hanno	5662
lek	5663
▁pole	5664
▁mine	5665
נ	5666
adh	5667
▁ص	5668
▁اي	5669
dio	5670
▁bé	5671
ена	5672
ू	5673
oli	5674
▁th	5675
▁لئے	5676
リ	5677
▁té	5678
ከ	5679
死	5680
하게	5681
▁azt	5682
คน	5683
▁65	5684
▁Esta	5685
tai	5686
ách	5687
్	5688
▁ara	5689
େ	5690
▁3-	5691
▁phẩm	5692
合作	5693
ින්	5694
▁Mag	5695
iko	5696
▁werk	5697
ወ	5698
▁१	5699
▁popular	5700
▁same	5701
包	5702
لي	5703
vr	5704
▁tau	5705
غ	5706
▁proces	5707
ña	5708
zem	5709
▁Ana	5710
▁работа	5711
▁даже	5712
ill	5713
不同	5714
▁đối	5715
▁kala	5716
▁كما	5717
▁ông	5718
ит	5719
bir	5720
ね	5721
建设	5722
▁quis	5723
▁която	5724
िक	5725
▁2002	5726
▁hefur	5727
▁али	5728
▁Р	5729
号	5730
▁které	5731
▁spo	5732
如何	5733
ත	5734
▁naman	5735
▁sans	5736
▁pois	5737
▁ఒక	5738
gra	5739
dk	5740
▁Ako	5741
▁04	5742
itate	5743
▁modern	5744
▁algo	5745
cions	5746
▁estar	5747
▁hiyo	5748
من	5749
として	5750
aal	5751
lardan	5752
▁York	5753
▁કરી	5754
▁Barcelona	5755
▁hans	5756
70	5757
▁Ба	5758
-1	5759
▁било	5760
mann	5761
▁нема	5762
น้ํา	5763
▁ଅ	5764
sem	5765
▁бір	5766
▁loro	5767
▁gut	5768
이다	5769
세	5770
dim	5771
anti	5772
▁off	5773
▁saa	5774
▁fo	5775
▁empresa	5776
ivo	5777
ଟି	5778
마	5779
ট	5780
lä	5781
lus	5782
ează	5783
▁خلال	5784
▁через	5785
▁mari	5786
▁Ap	5787
Ж	5788
гийн	5789
ios	5790
â	5791
▁too	5792
▁ਹਨ	5793
▁litt	5794
▁sil	5795
方法	5796
▁پس	5797
▁coa	5798
▁nada	5799
ón	5800
▁iyi	5801
▁molto	5802
อยู่	5803
tā	5804
▁tā	5805
▁керек	5806
▁보	5807
▁organiz	5808
▁could	5809
σε	5810
ʻ	5811
▁kol	5812
▁Que	5813
dro	5814
▁Norge	5815
▁הת	5816
▁vores	5817
▁سب	5818
ทํา	5819
يء	5820
위	5821
aya	5822
▁หรือ	5823
isen	5824
▁negara	5825
입니다	5826
သူ	5827
ningen	5828
ub	5829
▁bộ	5830
ono	5831
▁Э	5832
ű	5833
ľ	5834
▁тому	5835
▁kau	5836
▁주	5837
接	5838
skih	5839
Ф	5840
空	5841
▁между	5842
35	5843
ive	5844
ۍ	5845
lərin	5846
▁13.	5847
▁tras	5848
▁tous	5849
▁वर्ष	5850
kami	5851
▁روی	5852
放	5853
▁kang	5854
▁יותר	5855
▁pře	5856
▁bản	5857
此	5858
▁stil	5859
▁Ai	5860
ard	5861
給	5862
▁centro	5863
▁hij	5864
luk	5865
ро	5866
▁جن	5867
plan	5868
▁hội	5869
zon	5870
bh	5871
ská	5872
表	5873
eva	5874
▁lista	5875
dol	5876
pol	5877
보	5878
▁Trump	5879
▁Zo	5880
▁IN	5881
ური	5882
き	5883
ған	5884
▁fine	5885
▁การ	5886
▁үшін	5887
ვე	5888
产品	5889
▁kinh	5890
με	5891
▁Ка	5892
▁tế	5893
▁இந்த	5894
▁week	5895
▁44	5896
民	5897
iki	5898
જ	5899
▁Kun	5900
▁Ако	5901
ской	5902
▁വി	5903
▁tiene	5904
ମ	5905
▁Sant	5906
風	5907
ses	5908
գ	5909
▁doar	5910
ement	5911
▁dân	5912
කට	5913
rod	5914
▁lot	5915
▁hvordan	5916
▁Cara	5917
bas	5918
▁Mor	5919
▁내	5920
▁grup	5921
hor	5922
ρα	5923
cı	5924
▁även	5925
▁proti	5926
נה	5927
tom	5928
北	5929
нов	5930
단	5931
▁Galicia	5932
▁Ini	5933
▁част	5934
zan	5935
▁начин	5936
că	5937
แบบ	5938
▁사	5939
病	5940
▁many	5941
ുന്ന	5942
อย่าง	5943
தி	5944
▁massage	5945
▁【	5946
▁VI	5947
▁बि	5948
▁bine	5949
▁אל	5950
uh	5951
alla	5952
▁__	5953
▁सर्व	5954
200	5955
oje	5956
▁Ко	5957
马	5958
▁IT	5959
▁אם	5960
▁α	5961
▁hit	5962
در	5963
osta	5964
因為	5965
ந்த	5966
stre	5967
▁dva	5968
лен	5969
λ	5970
▁Tha	5971
нің	5972
▁Ö	5973
pil	5974
▁osa	5975
▁Vol	5976
▁radio	5977
႔	5978
▁trebuie	5979
uni	5980
ός	5981
▁حق	5982
fin	5983
owego	5984
ām	5985
▁Song	5986
▁Als	5987
▁घर	5988
ვა	5989
▁трябва	5990
▁foarte	5991
bur	5992
സി	5993
▁тут	5994
▁tâm	5995
ುವ	5996
een	5997
第一	5998
▁прав	5999
fra	6000
▁ஆ	6001
▁syn	6002
▁Th	6003
▁क्या	6004
▁ugu	6005
解	6006
▁Lietuvos	6007
يم	6008
▁ക്ക്	6009
▁тем	6010
essa	6011
יים	6012
にも	6013
▁എ	6014
▁nok	6015
ரி	6016
▁κατα	6017
▁कहा	6018
kę	6019
imas	6020
▁ሲ	6021
▁دانلود	6022
sis	6023
▁multi	6024
ük	6025
▁waxaa	6026
개	6027
球	6028
տ	6029
▁kiu	6030
▁ול	6031
time	6032
ив	6033
▁mala	6034
▁Mer	6035
अ	6036
▁nahi	6037
лы	6038
▁өз	6039
ರೆ	6040
्य	6041
食	6042
▁របស់	6043
▁such	6044
हरु	6045
▁ekonomi	6046
▁този	6047
king	6048
▁leg	6049
▁대	6050
▁gian	6051
▁2003	6052
▁valor	6053
▁ی	6054
▁буде	6055
out	6056
▁star	6057
rán	6058
ında	6059
yə	6060
▁Але	6061
言	6062
dag	6063
▁kultur	6064
azione	6065
▁tình	6066
▁اسلام	6067
▁bola	6068
▁tip	6069
kra	6070
直	6071
▁ומ	6072
ã	6073
▁politik	6074
ೆ	6075
ळ	6076
ux	6077
▁_--	6078
▁sang	6079
▁رد	6080
▁가	6081
保	6082
▁natural	6083
sit	6084
▁කරන	6085
▁고	6086
～	6087
▁September	6088
ಲಿ	6089
ائي	6090
որ	6091
▁eget	6092
ער	6093
▁الإ	6094
み	6095
▁Red	6096
▁these	6097
▁Tai	6098
ಡ	6099
ssä	6100
▁poz	6101
sak	6102
ние	6103
▁Те	6104
院	6105
▁igen	6106
▁PC	6107
లి	6108
उ	6109
▁என்று	6110
住	6111
▁Dette	6112
स्	6113
lab	6114
յան	6115
▁더	6116
▁thi	6117
യാണ്	6118
▁ihr	6119
iť	6120
▁Af	6121
▁bảo	6122
▁Cymru	6123
ža	6124
सा	6125
gon	6126
▁jó	6127
阿	6128
笑	6129
ane	6130
asta	6131
▁jeden	6132
mist	6133
▁ကို	6134
▁ٿو	6135
▁rol	6136
▁sedan	6137
▁st	6138
▁їх	6139
kou	6140
singaw	6141
▁دل	6142
▁देश	6143
amo	6144
▁වන	6145
▁mijn	6146
啊	6147
رو	6148
ச்	6149
▁אז	6150
स्य	6151
itat	6152
lem	6153
ување	6154
না	6155
設計	6156
▁bag	6157
ି	6158
Fi	6159
جي	6160
மா	6161
zio	6162
▁Bra	6163
▁مت	6164
▁wan	6165
eko	6166
少	6167
бра	6168
eli	6169
ୀ	6170
▁нет	6171
▁بىر	6172
кон	6173
maa	6174
▁tú	6175
▁ಕ	6176
▁ഇ	6177
▁dah	6178
▁viel	6179
當	6180
▁transport	6181
งาน	6182
▁really	6183
▁máy	6184
▁թե	6185
▁ଆ	6186
амі	6187
▁też	6188
▁kop	6189
പ്പ	6190
inte	6191
회	6192
半	6193
ному	6194
ří	6195
企業	6196
▁DO	6197
▁prej	6198
▁всички	6199
Š	6200
anna	6201
▁tempat	6202
йте	6203
ది	6204
tii	6205
▁Dis	6206
ав	6207
ване	6208
ម	6209
Al	6210
fen	6211
šu	6212
hoz	6213
▁dá	6214
▁яго	6215
▁menggunakan	6216
▁sor	6217
ця	6218
った	6219
▁اللہ	6220
▁ple	6221
▁mau	6222
ای	6223
mie	6224
▁قد	6225
▁control	6226
اد	6227
▁lehet	6228
dam	6229
▁ہوئے	6230
መ	6231
aria	6232
共	6233
▁suka	6234
▁גע	6235
nal	6236
▁noe	6237
ding	6238
▁vậy	6239
▁ਵਿਚ	6240
▁można	6241
ア	6242
▁proses	6243
▁pis	6244
▁Mais	6245
▁България	6246
را	6247
▁đề	6248
▁wê	6249
▁seda	6250
建	6251
▁toàn	6252
▁peu	6253
▁ని	6254
▁איך	6255
▁اين	6256
▁ح	6257
ాన్ని	6258
led	6259
▁43	6260
gue	6261
kun	6262
ള	6263
▁opera	6264
▁kalau	6265
ген	6266
تي	6267
▁وب	6268
网	6269
्या	6270
周	6271
▁ven	6272
▁Dalam	6273
▁ન	6274
▁point	6275
para	6276
ám	6277
健康	6278
▁leo	6279
iert	6280
▁15.	6281
ას	6282
達	6283
▁sao	6284
մ	6285
▁kanssa	6286
aus	6287
سى	6288
▁kry	6289
રી	6290
▁nám	6291
실	6292
ף	6293
ط	6294
pit	6295
▁नेपाली	6296
▁više	6297
▁ବି	6298
ใจ	6299
▁Bet	6300
▁kết	6301
▁گ	6302
▁hacer	6303
▁себя	6304
▁tips	6305
ių	6306
▁alta	6307
오	6308
зе	6309
▁چه	6310
▁អ្នក	6311
電	6312
owania	6313
▁план	6314
▁roman	6315
kö	6316
▁ці	6317
oldid	6318
▁ק	6319
▁malo	6320
يو	6321
zna	6322
ლი	6323
lap	6324
▁phòng	6325
увати	6326
▁laga	6327
pt	6328
▁tay	6329
▁tác	6330
▁600	6331
mbi	6332
cin	6333
▁অ	6334
未	6335
▁ainda	6336
▁nostra	6337
▁digital	6338
▁지	6339
പ	6340
чка	6341
首	6342
ப்பு	6343
wie	6344
யை	6345
со	6346
格	6347
▁rồi	6348
门	6349
▁الف	6350
▁być	6351
▁sér	6352
▁సినిమా	6353
▁εν	6354
ū	6355
ٹ	6356
ຍ	6357
esti	6358
식	6359
▁2016.	6360
▁antes	6361
ete	6362
▁stra	6363
▁үчүн	6364
▁день	6365
pp	6366
▁ка	6367
യെ	6368
bro	6369
▁14.	6370
IT	6371
▁lượng	6372
▁నా	6373
的是	6374
木	6375
▁在	6376
के	6377
hus	6378
ங்கள்	6379
พ	6380
ત	6381
iden	6382
zar	6383
က်	6384
▁waa	6385
▁এই	6386
lie	6387
▁دیا	6388
▁Gar	6389
▁க	6390
dagi	6391
▁disa	6392
ካ	6393
▁కు	6394
하	6395
▁>>	6396
▁ideal	6397
ු	6398
▁නිසා	6399
▁pää	6400
km	6401
nic	6402
eb	6403
▁thai	6404
▁DA	6405
▁City	6406
umu	6407
▁مختلف	6408
▁бойынша	6409
تى	6410
ವಾಗಿ	6411
eket	6412
يد	6413
▁einfach	6414
نه	6415
▁también	6416
прав	6417
▁tutto	6418
ń	6419
▁غير	6420
▁ар	6421
▁Previous	6422
ps	6423
تی	6424
▁नै	6425
▁ήταν	6426
inės	6427
▁ד	6428
▁две	6429
▁kul	6430
non	6431
▁serie	6432
Ne	6433
▁gel	6434
▁बाद	6435
▁Radio	6436
さ	6437
▁Sz	6438
ян	6439
ిన	6440
▁aquest	6441
两	6442
以上	6443
▁නෑ	6444
▁nich	6445
тын	6446
cion	6447
tok	6448
▁الى	6449
▁timp	6450
石	6451
▁시	6452
▁toate	6453
bis	6454
inių	6455
▁pl	6456
nh	6457
▁ketika	6458
▁volgende	6459
32	6460
▁р	6461
▁väl	6462
09	6463
▁stato	6464
ました	6465
تها	6466
ными	6467
ds	6468
▁፡	6469
▁Martin	6470
pra	6471
اق	6472
्स	6473
▁frem	6474
ingen	6475
▁במ	6476
客	6477
▁41	6478
ნა	6479
▁produk	6480
只是	6481
▁dieser	6482
▁AS	6483
玩	6484
▁än	6485
▁ден	6486
▁który	6487
wer	6488
sat	6489
யா	6490
▁hadde	6491
mb	6492
py	6493
▁bad	6494
Ha	6495
ving	6496
amento	6497
kala	6498
▁Bre	6499
များ	6500
▁دور	6501
▁рад	6502
▁ktorý	6503
gor	6504
▁Tan	6505
▁!!	6506
▁chất	6507
дың	6508
ப	6509
▁cal	6510
lom	6511
▁Sta	6512
ලි	6513
▁اب	6514
▁ווי	6515
nov	6516
▁ore	6517
方式	6518
▁સાથે	6519
▁pin	6520
▁신	6521
ból	6522
音	6523
▁Gra	6524
台灣	6525
▁quá	6526
лся	6527
▁idea	6528
▁19.	6529
▁seks	6530
▁ທ່ານ	6531
ου	6532
▁Maar	6533
▁ras	6534
ห	6535
▁través	6536
▁cosa	6537
DA	6538
ниот	6539
ಡಿ	6540
▁dobro	6541
▁muốn	6542
▁dus	6543
▁shi	6544
主要	6545
сон	6546
차	6547
sun	6548
ใช้	6549
ቃ	6550
၏	6551
う	6552
▁කරන්න	6553
ého	6554
▁пера	6555
▁questa	6556
▁Land	6557
▁रहे	6558
▁жа	6559
▁mempunyai	6560
▁One	6561
list	6562
rus	6563
▁جدید	6564
▁Sal	6565
லி	6566
▁bằng	6567
skap	6568
itet	6569
目	6570
▁일	6571
▁hade	6572
▁quả	6573
тра	6574
ائی	6575
भ	6576
kah	6577
ري	6578
▁бъде	6579
డ్	6580
isk	6581
交	6582
ško	6583
vě	6584
▁;)	6585
▁Wat	6586
rsi	6587
▁dunia	6588
Á	6589
▁ସେ	6590
▁utan	6591
жи	6592
ತ	6593
ien	6594
երի	6595
หน้า	6596
گ	6597
ಂ	6598
▁volta	6599
▁제	6600
ыя	6601
▁year	6602
▁akkor	6603
▁cuando	6604
▁ár	6605
▁්	6606
制	6607
▁الن	6608
Vi	6609
▁Sin	6610
▁არა	6611
▁थियो	6612
ilo	6613
eke	6614
▁conta	6615
lad	6616
▁κατά	6617
直接	6618
▁Of	6619
ence	6620
▁იყო	6621
▁Ó	6622
τι	6623
apa	6624
▁قال	6625
▁two	6626
▁massa	6627
其中	6628
▁още	6629
çi	6630
▁Ay	6631
:00	6632
收	6633
▁sine	6634
ary	6635
ības	6636
▁because	6637
▁থেকে	6638
stro	6639
რ	6640
▁cer	6641
É	6642
▁eftir	6643
ture	6644
pul	6645
▁Como	6646
▁paar	6647
▁mail	6648
▁(0)	6649
▁ago	6650
ord	6651
oc	6652
▁Tor	6653
წ	6654
▁האט	6655
落	6656
▁chủ	6657
▁מת	6658
eze	6659
lere	6660
▁World	6661
▁წლის	6662
ეს	6663
ium	6664
香港	6665
คุณ	6666
ып	6667
▁것	6668
ike	6669
▁agar	6670
▁grad	6671
وی	6672
▁уз	6673
▁дел	6674
▁غیر	6675
田	6676
▁ක	6677
▁Sol	6678
却	6679
ਟ	6680
▁פאר	6681
ດ	6682
pak	6683
▁ialah	6684
▁다	6685
▁halamang	6686
▁ăn	6687
我的	6688
商品	6689
ए	6690
NA	6691
▁öz	6692
▁información	6693
▁අතර	6694
▁كه	6695
Me	6696
▁وزیر	6697
▁इ	6698
▁हुने	6699
sins	6700
▁कारण	6701
డి	6702
SA	6703
elt	6704
▁소	6705
ES	6706
цца	6707
▁سن	6708
į	6709
强	6710
什么	6711
▁game	6712
▁look	6713
тин	6714
ใหม่	6715
▁ст	6716
世	6717
▁tốt	6718
ေတြ	6719
관	6720
▁kis	6721
կ	6722
ario	6723
ቶ	6724
▁Ç	6725
▁edib	6726
ön	6727
深	6728
▁rá	6729
▁කළ	6730
▁keine	6731
▁Δ	6732
යට	6733
noj	6734
ун	6735
வி	6736
об	6737
▁εκ	6738
▁þar	6739
조	6740
ř	6741
▁මට	6742
ute	6743
▁waktu	6744
▁tính	6745
01	6746
▁նաեւ	6747
▁علي	6748
mə	6749
▁ՀՀ	6750
所有	6751
å	6752
▁സ	6753
▁ना	6754
▁SE	6755
▁වි	6756
▁także	6757
taka	6758
አ	6759
▁Tar	6760
▁також	6761
▁čas	6762
ann	6763
▁siya	6764
▁David	6765
Be	6766
中國	6767
便	6768
kus	6769
▁საქართველოს	6770
▁بخش	6771
ผู้	6772
nit	6773
hla	6774
우	6775
、「	6776
▁did	6777
场	6778
با	6779
▁~	6780
oso	6781
▁great	6782
▁consectetur	6783
▁tyre	6784
oval	6785
布	6786
だ	6787
▁کرتے	6788
▁2001	6789
ира	6790
▁(6)	6791
ota	6792
▁انجام	6793
мер	6794
gur	6795
ell	6796
▁hver	6797
▁aut	6798
▁lige	6799
▁pháp	6800
ਿਆ	6801
▁fakt	6802
taa	6803
▁대한	6804
▁están	6805
项目	6806
ಸಿ	6807
社	6808
▁dintre	6809
ať	6810
▁vain	6811
▁аз	6812
hez	6813
のは	6814
ier	6815
▁حقوق	6816
▁fall	6817
▁bur	6818
களை	6819
gin	6820
mba	6821
▁kerana	6822
▁կարող	6823
每	6824
ئي	6825
▁людей	6826
cal	6827
yar	6828
ୁ	6829
孩子	6830
▁nama	6831
분	6832
ony	6833
▁خلاف	6834
▁reg	6835
imit	6836
rek	6837
야	6838
ጠ	6839
▁thường	6840
▁այն	6841
▁hiệu	6842
ғы	6843
▁خو	6844
▁bija	6845
hol	6846
▁isə	6847
▁Amerika	6848
▁16.	6849
kker	6850
▁isso	6851
ਦ	6852
ପ	6853
▁fem	6854
zbekiston	6855
常	6856
▁pēc	6857
油	6858
▁PDF	6859
▁игра	6860
▁سا	6861
dus	6862
▁its	6863
▁vera	6864
hel	6865
▁افراد	6866
▁live	6867
▁comment	6868
▁muss	6869
▁kde	6870
▁Ар	6871
▁See	6872
75	6873
uda	6874
ούν	6875
ಯನ್ನು	6876
▁prav	6877
лись	6878
▁във	6879
ила	6880
完成	6881
▁život	6882
ുക	6883
▁xuất	6884
▁apo	6885
▁ڪرڻ	6886
दा	6887
▁안	6888
sion	6889
ಳ	6890
▁Се	6891
isten	6892
ნ	6893
ത്തെ	6894
对于	6895
▁(3	6896
▁life	6897
кан	6898
房	6899
▁Zu	6900
jat	6901
lıq	6902
ró	6903
ಣ	6904
Ц	6905
你的	6906
тың	6907
หรือ	6908
▁toda	6909
▁ЗА	6910
टी	6911
▁può	6912
▁Latvijas	6913
వా	6914
лык	6915
▁melakukan	6916
έ	6917
ප	6918
▁ligger	6919
gir	6920
▁Ir	6921
▁ਵੀ	6922
kul	6923
▁điểm	6924
kaan	6925
jā	6926
▁समय	6927
ടി	6928
Р	6929
ίας	6930
kol	6931
▁ਕਰ	6932
ování	6933
▁др	6934
ங்க	6935
tag	6936
ვი	6937
ต่อ	6938
▁trí	6939
▁prije	6940
▁độ	6941
nji	6942
유	6943
▁нужно	6944
नि	6945
▁šo	6946
mmer	6947
ových	6948
▁Yo	6949
ობა	6950
în	6951
▁२	6952
sing	6953
test	6954
▁Gu	6955
▁cảm	6956
▁big	6957
igh	6958
代表	6959
▁ज	6960
▁რომელიც	6961
▁перед	6962
به	6963
esc	6964
osti	6965
开始	6966
gun	6967
▁personas	6968
ար	6969
ጣ	6970
ણ	6971
▁úr	6972
▁mé	6973
ده	6974
నా	6975
▁ใน	6976
nings	6977
今年	6978
Ja	6979
ፈ	6980
▁hoặc	6981
port	6982
▁لو	6983
لى	6984
▁vê	6985
理	6986
▁Sau	6987
적인	6988
酒店	6989
unda	6990
ase	6991
inə	6992
▁ਕੇ	6993
ök	6994
選	6995
▁nhiên	6996
ór	6997
▁tiếp	6998
▁mål	6999
▁unui	7000
▁loc	7001
▁qual	7002
▁teen	7003
▁Ս	7004
活动	7005
件	7006
▁plat	7007
sp	7008
▁waxa	7009
alt	7010
ර්	7011
▁فقط	7012
vali	7013
ထား	7014
ଙ୍କୁ	7015
ிய	7016
▁tiu	7017
jí	7018
ង	7019
jä	7020
▁mask	7021
▁kus	7022
ము	7023
قا	7024
ено	7025
▁download	7026
ງ	7027
▁setiap	7028
යා	7029
und	7030
лась	7031
▁ради	7032
▁olduğunu	7033
ไทย	7034
̣	7035
інің	7036
▁oldu	7037
▁מו	7038
ee	7039
uj	7040
管	7041
▁energi	7042
ବା	7043
про	7044
▁quanto	7045
재	7046
▁svo	7047
城市	7048
00	7049
miş	7050
总	7051
žu	7052
▁Монгол	7053
ум	7054
学校	7055
す	7056
hle	7057
▁այդ	7058
ലി	7059
▁چند	7060
пе	7061
▁thiết	7062
▁정	7063
没	7064
வை	7065
▁మ	7066
▁tới	7067
▁then	7068
▁Lorem	7069
zza	7070
▁April	7071
kii	7072
▁tetapi	7073
enda	7074
လာ	7075
▁17.	7076
put	7077
▁Afrika	7078
fr	7079
ጥ	7080
了解	7081
▁US	7082
ட	7083
방	7084
▁20.	7085
▁mind	7086
дзе	7087
shme	7088
▁اليوم	7089
dre	7090
▁비	7091
ray	7092
▁همه	7093
중	7094
gmail	7095
ೇ	7096
ndan	7097
▁marca	7098
▁hệ	7099
李	7100
ech	7101
sur	7102
▁after	7103
▁seva	7104
mata	7105
▁തന്നെ	7106
▁امام	7107
▁right	7108
▁hva	7109
од	7110
ସ	7111
slag	7112
vara	7113
ப்ப	7114
▁ml	7115
ド	7116
ský	7117
ör	7118
bla	7119
▁zna	7120
bli	7121
▁کوئی	7122
▁news	7123
▁biz	7124
ння	7125
▁huo	7126
▁već	7127
▁کتاب	7128
▁maak	7129
uti	7130
▁treba	7131
uoti	7132
стра	7133
gre	7134
สําหรับ	7135
ult	7136
ður	7137
ī	7138
▁بۇ	7139
▁Cum	7140
▁ogni	7141
▁Social	7142
uit	7143
iad	7144
▁Pred	7145
ID	7146
▁داد	7147
▁боюнча	7148
风	7149
能够	7150
fri	7151
თან	7152
全球	7153
ance	7154
▁bro	7155
▁album	7156
tari	7157
▁ski	7158
▁아	7159
ტი	7160
▁również	7161
ques	7162
তা	7163
tay	7164
方面	7165
cem	7166
▁jedno	7167
wikipedia	7168
▁notre	7169
▁büyük	7170
при	7171
▁रहा	7172
▁trị	7173
▁ક	7174
▁team	7175
▁который	7176
news	7177
മാണ്	7178
вар	7179
bili	7180
دي	7181
lov	7182
▁למ	7183
û	7184
▁করা	7185
कार	7186
...”	7187
▁ting	7188
انه	7189
rk	7190
್	7191
Po	7192
▁кто	7193
히	7194
▁בה	7195
хи	7196
只有	7197
▁PM	7198
▁mem	7199
自然	7200
פ	7201
▁manera	7202
vir	7203
ост	7204
▁maken	7205
▁زندگی	7206
eti	7207
任	7208
లా	7209
▁ans	7210
▁chức	7211
্	7212
▁שי	7213
까지	7214
ଲା	7215
▁இ	7216
▁tạo	7217
▁49	7218
szt	7219
ków	7220
▁52	7221
▁Τα	7222
▁lokal	7223
▁Sha	7224
▁case	7225
▁deve	7226
▁00	7227
▁made	7228
つ	7229
isha	7230
▁तक	7231
aha	7232
▁موجود	7233
字	7234
Bu	7235
°	7236
ml	7237
▁Kontakt	7238
ría	7239
ગ	7240
är	7241
百	7242
▁נישט	7243
▁Microsoft	7244
▁21.	7245
ист	7246
▁deres	7247
wyr	7248
ിന്റെ	7249
ind	7250
An	7251
学生	7252
▁antara	7253
▁ან	7254
▁fazer	7255
ေရး	7256
▁ის	7257
ाने	7258
話	7259
fan	7260
ाच्या	7261
▁folk	7262
ral	7263
▁عنوان	7264
▁מיט	7265
一次	7266
古	7267
encia	7268
▁sống	7269
▁Paris	7270
▁bun	7271
学习	7272
???	7273
rne	7274
▁Vis	7275
イ	7276
▁বি	7277
▁causa	7278
▁stop	7279
▁ጋር	7280
ത്തിന്റെ	7281
یر	7282
▁жыл	7283
▁edir	7284
OS	7285
무	7286
ուն	7287
▁taip	7288
▁:-)	7289
pla	7290
▁Kat	7291
▁സി	7292
آ	7293
डी	7294
▁työ	7295
bol	7296
『	7297
▁elle	7298
zin	7299
يون	7300
ລາວ	7301
ít	7302
▁هغه	7303
▁mos	7304
▁ਸੀ	7305
▁4-	7306
▁direkt	7307
ਆਂ	7308
І	7309
али	7310
▁original	7311
▁لي	7312
ára	7313
▁والے	7314
▁він	7315
▁uku	7316
▁โดย	7317
清	7318
info	7319
黑	7320
▁मन	7321
ศ	7322
▁loại	7323
ню	7324
▁Far	7325
ać	7326
വി	7327
rem	7328
▁больше	7329
лет	7330
▁Мо	7331
pus	7332
jte	7333
▁liv	7334
他的	7335
เพื่อ	7336
iza	7337
▁EN	7338
lerini	7339
ppe	7340
air	7341
▁부	7342
кова	7343
ld	7344
▁Bal	7345
호	7346
llä	7347
▁baie	7348
▁jen	7349
ਹ	7350
inta	7351
hod	7352
เลย	7353
▁Ker	7354
科技	7355
▁mah	7356
toj	7357
ിൽ	7358
▁cre	7359
2014	7360
買	7361
▁Bur	7362
或者	7363
▁tussen	7364
тор	7365
gia	7366
星	7367
任何	7368
▁ער	7369
▁Nord	7370
▁ప	7371
ischen	7372
esi	7373
▁Sar	7374
▁ე	7375
▁vị	7376
▁ఇ	7377
▁tài	7378
Ş	7379
▁راه	7380
▁↑	7381
这种	7382
▁gjøre	7383
▁cam	7384
▁giới	7385
▁નથી	7386
▁በመ	7387
जी	7388
▁sampai	7389
▁jednak	7390
▁én	7391
▁paling	7392
бек	7393
ој	7394
▁át	7395
ży	7396
▁Oslo	7397
▁pur	7398
東	7399
▁bliver	7400
▁water	7401
不要	7402
bí	7403
mad	7404
ница	7405
րդ	7406
र्	7407
作为	7408
部分	7409
▁kada	7410
▁اپنی	7411
▁էլ	7412
▁find	7413
▁mano	7414
▁σου	7415
▁pia	7416
▁bệnh	7417
▁Jahr	7418
▁आहेत	7419
波	7420
▁mee	7421
▁Bor	7422
ሪ	7423
▁họ	7424
▁نور	7425
▁pop	7426
▁pernah	7427
ਪ	7428
®	7429
▁nivel	7430
▁moja	7431
ness	7432
▁болон	7433
▁اسلامی	7434
▁(18	7435
間	7436
▁Gratis	7437
bes	7438
ақ	7439
▁where	7440
▁dute	7441
▁pré	7442
দ	7443
tą	7444
ként	7445
▁szerint	7446
动	7447
ေန	7448
▁mua	7449
▁ZA	7450
▁ishte	7451
称	7452
ân	7453
▁пов	7454
▁ترین	7455
gna	7456
မှာ	7457
ról	7458
▁Од	7459
ey	7460
今天	7461
ungen	7462
▁기	7463
▁still	7464
▁Mon	7465
ո	7466
▁оны	7467
進	7468
ઓ	7469
owanie	7470
▁أي	7471
▁ڪيو	7472
▁Bei	7473
ото	7474
प्र	7475
▁સ	7476
▁fun	7477
ਸ਼	7478
▁biri	7479
មាន	7480
▁marketing	7481
▁گا	7482
ໃນ	7483
▁organ	7484
款	7485
ظ	7486
▁Беларусі	7487
平台	7488
张	7489
▁Pero	7490
▁przed	7491
Ã	7492
▁tiempo	7493
▁कुछ	7494
ppa	7495
Σ	7496
▁tren	7497
প	7498
支持	7499
▁több	7500
▁בין	7501
yang	7502
፡	7503
یل	7504
ख	7505
нага	7506
ਰੀ	7507
▁ר	7508
ន	7509
fel	7510
ני	7511
那么	7512
फ	7513
way	7514
▁cat	7515
▁mora	7516
▁हजार	7517
▁memang	7518
▁može	7519
ppi	7520
巴	7521
pos	7522
▁chiar	7523
▁dun	7524
▁Sh	7525
▁เป็น	7526
▁horas	7527
▁olyan	7528
니	7529
▁samme	7530
▁mondo	7531
lli	7532
вали	7533
”。	7534
tore	7535
▁göra	7536
olo	7537
▁vya	7538
மை	7539
▁oni	7540
▁ពី	7541
ਡ	7542
▁dove	7543
▁מי	7544
一般	7545
δ	7546
▁sh	7547
ခဲ့	7548
ियों	7549
▁Sun	7550
larına	7551
ตาม	7552
▁съм	7553
ការ	7554
▁મ	7555
vät	7556
ės	7557
爱	7558
▁zich	7559
sche	7560
▁sera	7561
▁Β	7562
▁gor	7563
dit	7564
▁down	7565
這個	7566
mbo	7567
bin	7568
dr	7569
nk	7570
▁posto	7571
сто	7572
▁svoj	7573
ати	7574
▁yake	7575
ოს	7576
ről	7577
▁حيث	7578
▁tamén	7579
▁hər	7580
▁način	7581
▁November	7582
▁sei	7583
ٽ	7584
▁برنامه	7585
▁kim	7586
itu	7587
мет	7588
▁ස	7589
▁đường	7590
러	7591
▁오	7592
들이	7593
▁fest	7594
ურ	7595
▁pár	7596
▁toho	7597
▁ona	7598
▁þá	7599
まで	7600
▁Auf	7601
τά	7602
mel	7603
οί	7604
mia	7605
反	7606
▁800	7607
甚至	7608
▁bütün	7609
▁IV	7610
ץ	7611
cre	7612
кой	7613
Ar	7614
▁zá	7615
ល	7616
▁outros	7617
▁якія	7618
▁kontrol	7619
▁fog	7620
▁46	7621
▁hom	7622
El	7623
▁بعض	7624
▁!!!	7625
▁však	7626
နဲ႔	7627
▁ingin	7628
早	7629
▁nay	7630
▁тази	7631
▁semana	7632
▁Це	7633
Ε	7634
▁بات	7635
tica	7636
▁thức	7637
▁были	7638
▁show	7639
ün	7640
당	7641
ତ	7642
▁logo	7643
▁Qui	7644
▁dela	7645
处	7646
▁fet	7647
熱	7648
ود	7649
▁Don	7650
▁tsy	7651
nga	7652
▁կամ	7653
より	7654
stri	7655
▁Mat	7656
▁47	7657
▁č	7658
ška	7659
ību	7660
▁tahu	7661
【	7662
▁Program	7663
ké	7664
▁mini	7665
▁selle	7666
ா	7667
chy	7668
▁bên	7669
氣	7670
ssen	7671
فر	7672
..."	7673
▁Hu	7674
▁fins	7675
rna	7676
▁üle	7677
▁ganz	7678
▁අපි	7679
▁Fu	7680
▁mene	7681
יק	7682
▁آنها	7683
▁مردم	7684
dores	7685
▁terhadap	7686
▁Club	7687
非	7688
zet	7689
▁حتى	7690
▁Μ	7691
ບ	7692
html	7693
▁Italia	7694
nat	7695
tare	7696
▁strani	7697
▁kunt	7698
▁senza	7699
nci	7700
hem	7701
千	7702
▁ως	7703
▁str	7704
▁mye	7705
▁wij	7706
prav	7707
▁ку	7708
04	7709
wn	7710
ീ	7711
▁Khan	7712
పై	7713
▁Anna	7714
▁turi	7715
▁Dat	7716
ese	7717
دە	7718
вен	7719
▁Раз	7720
▁interes	7721
▁possible	7722
▁କ	7723
‬	7724
▁אבל	7725
開始	7726
▁энэ	7727
兩	7728
▁مثل	7729
▁going	7730
çe	7731
minen	7732
▁grupo	7733
ným	7734
2013	7735
яз	7736
tif	7737
ದು	7738
300	7739
ン	7740
即	7741
▁án	7742
▁nap	7743
▁18.	7744
eur	7745
▁זיך	7746
టి	7747
▁jsme	7748
▁అని	7749
▁libro	7750
▁сите	7751
esta	7752
ða	7753
▁ਅ	7754
▁fue	7755
▁cầu	7756
eaza	7757
מה	7758
စ	7759
產品	7760
rom	7761
▁Все	7762
To	7763
▁باز	7764
ских	7765
▁nome	7766
▁aja	7767
En	7768
▁бас	7769
声	7770
▁പ്ര	7771
vien	7772
▁duhet	7773
▁кра	7774
▁Saya	7775
▁ха	7776
▁egen	7777
▁رہے	7778
alo	7779
ණ	7780
条	7781
وب	7782
TA	7783
ん	7784
ё	7785
yle	7786
NI	7787
ულ	7788
▁Santa	7789
▁ๆ	7790
mě	7791
▁код	7792
▁rus	7793
がある	7794
▁بم	7795
▁Мы	7796
werk	7797
▁Mari	7798
▁bili	7799
州	7800
▁vám	7801
▁বা	7802
god	7803
pot	7804
▁έχουν	7805
▁Γ	7806
ട്ട	7807
▁fac	7808
yla	7809
ें	7810
ній	7811
пре	7812
▁yêu	7813
die	7814
بل	7815
she	7816
rez	7817
往	7818
inė	7819
體	7820
▁deux	7821
▁lor	7822
▁π	7823
▁iba	7824
气	7825
ている	7826
ட்ட	7827
▁mur	7828
▁klub	7829
▁gerne	7830
ets	7831
▁Stra	7832
anie	7833
fat	7834
味	7835
ала	7836
▁tant	7837
▁היה	7838
▁chun	7839
cos	7840
▁cand	7841
AL	7842
▁дела	7843
ful	7844
ดู	7845
вал	7846
切	7847
▁Ч	7848
공	7849
▁سنڌ	7850
nus	7851
ικά	7852
▁rum	7853
▁új	7854
ана	7855
će	7856
šta	7857
▁oslo	7858
ür	7859
▁زمان	7860
amos	7861
▁ซึ่ง	7862
▁sulla	7863
vers	7864
▁detta	7865
▁wax	7866
▁ди	7867
▁Fra	7868
▁doch	7869
ils	7870
skom	7871
ዝ	7872
▁doanh	7873
ച്ച	7874
ेर	7875
▁mert	7876
▁град	7877
стро	7878
ən	7879
▁Mark	7880
馬	7881
▁ჩა	7882
ligi	7883
lia	7884
▁keď	7885
сть	7886
બ	7887
ску	7888
ിച്ച	7889
▁vielä	7890
▁2015.	7891
▁չի	7892
▁principal	7893
▁Հայաստանի	7894
▁kara	7895
▁Wenn	7896
▁klo	7897
ском	7898
▁đại	7899
▁место	7900
들	7901
▁tad	7902
▁Els	7903
▁случае	7904
경	7905
▁Menschen	7906
▁شو	7907
▁hora	7908
▁tag	7909
▁aktiv	7910
▁64	7911
rzy	7912
血	7913
▁ነው።	7914
▁CD	7915
פי	7916
рі	7917
技術	7918
华	7919
▁dur	7920
sus	7921
▁pad	7922
모	7923
ēt	7924
ania	7925
▁poco	7926
▁مل	7927
bri	7928
ໄດ້	7929
▁rasa	7930
▁Ла	7931
▁Това	7932
▁chu	7933
ont	7934
▁många	7935
▁каб	7936
▁នេះ	7937
▁ولا	7938
▁pana	7939
▁PS	7940
▁hard	7941
ର୍	7942
▁hel	7943
nder	7944
atu	7945
لار	7946
▁ه	7947
▁Peter	7948
分析	7949
▁Mis	7950
ില്ല	7951
inis	7952
▁bilder	7953
να	7954
▁üzrə	7955
연	7956
छ	7957
號	7958
▁ew	7959
わ	7960
——	7961
rel	7962
▁ச	7963
▁global	7964
takse	7965
rer	7966
வு	7967
▁anal	7968
▁aasta	7969
▁esa	7970
▁než	7971
לי	7972
▁tháng	7973
▁Hor	7974
▁nisi	7975
▁lớn	7976
上的	7977
awa	7978
人的	7979
▁klar	7980
修	7981
▁ጊዜ	7982
▁lle	7983
▁වූ	7984
具有	7985
▁text	7986
▁اول	7987
▁ශ්	7988
▁آب	7989
หา	7990
▁điện	7991
isht	7992
▁ਕਰਨ	7993
▁koko	7994
են	7995
▁dopo	7996
ø	7997
kos	7998
..!	7999
▁나	8000
▁нэг	8001
▁Fer	8002
▁još	8003
čí	8004
▁страна	8005
▁Soomaaliya	8006
ция	8007
မွ	8008
▁עד	8009
▁hot	8010
▁dina	8011
تے	8012
▁sitä	8013
▁mus	8014
NE	8015
하여	8016
▁svi	8017
▁Sur	8018
▁Sp	8019
ttu	8020
▁IP	8021
▁Ger	8022
Ba	8023
▁prezent	8024
▁terra	8025
▁menu	8026
ร์	8027
女性	8028
▁होता	8029
▁할	8030
BA	8031
ээр	8032
گە	8033
ມ	8034
▁being	8035
ፋ	8036
進行	8037
▁mewn	8038
دو	8039
சி	8040
▁система	8041
若	8042
▁nang	8043
▁закон	8044
▁الس	8045
▁bhfuil	8046
Ü	8047
에는	8048
ində	8049
ু	8050
enza	8051
▁سه	8052
▁Pada	8053
anda	8054
▁August	8055
他們	8056
▁finans	8057
▁mille	8058
▁Kal	8059
▁support	8060
▁giúp	8061
▁नाम	8062
▁business	8063
▁Ty	8064
کی	8065
NG	8066
وس	8067
!)	8068
mą	8069
▁Tanzania	8070
▁چ	8071
▁twee	8072
▁едно	8073
▁نیست	8074
環境	8075
今	8076
ére	8077
▁Ihnen	8078
pper	8079
ls	8080
▁Tin	8081
▁stre	8082
▁ግን	8083
▁όπως	8084
▁بىلەن	8085
▁khu	8086
dzie	8087
▁masuk	8088
▁gy	8089
lta	8090
vos	8091
Ի	8092
▁pet	8093
▁tanpa	8094
▁проблем	8095
▁q	8096
夜	8097
▁який	8098
▁এবং	8099
▁က	8100
▁ਨਹੀਂ	8101
▁ყველა	8102
kim	8103
▁gol	8104
内容	8105
tzea	8106
更多	8107
▁before	8108
▁sobie	8109
▁must	8110
▁pil	8111
失	8112
Ч	8113
▁mejor	8114
▁Ved	8115
เ	8116
▁Esperanto	8117
▁всего	8118
越	8119
▁வி	8120
▁presente	8121
▁бити	8122
▁vẫn	8123
▁göre	8124
現在	8125
ണം	8126
▁Commons	8127
лення	8128
▁Festival	8129
▁kế	8130
▁tel	8131
▁mia	8132
iri	8133
मध्ये	8134
რი	8135
▁گزارش	8136
▁mali	8137
品牌	8138
Ka	8139
ért	8140
▁így	8141
ლ	8142
▁무	8143
sinin	8144
iau	8145
ojnë	8146
▁sitt	8147
▁области	8148
ရာ	8149
▁انسان	8150
▁liên	8151
}	8152
▁saber	8153
▁ලෙස	8154
▁eerste	8155
▁nacional	8156
▁եմ	8157
▁Aku	8158
▁Бо	8159
ust	8160
▁melalui	8161
▁Wikipedia	8162
▁días	8163
ئی	8164
▁году	8165
▁año	8166
▁dra	8167
▁PER	8168
▁више	8169
дағы	8170
指	8171
▁mein	8172
中的	8173
▁casino	8174
▁ආ	8175
บ้าน	8176
여	8177
一直	8178
▁Kui	8179
▁inform	8180
้	8181
வர்	8182
▁Plus	8183
こと	8184
하기	8185
▁diesem	8186
这样	8187
ीय	8188
lgan	8189
▁добро	8190
▁πολύ	8191
▁phần	8192
tika	8193
05	8194
Ó	8195
▁خواهد	8196
ానికి	8197
šanas	8198
larni	8199
▁sok	8200
▁enn	8201
wal	8202
ղ	8203
政策	8204
行业	8205
ove	8206
ец	8207
▁പി	8208
しています	8209
▁പ	8210
▁parë	8211
排	8212
აც	8213
ត	8214
▁Công	8215
ave	8216
▁اسان	8217
MA	8218
▁mense	8219
▁її	8220
▁Кыргыз	8221
rê	8222
▁sina	8223
▁yên	8224
▁ach	8225
ವಿ	8226
▁شامل	8227
▁cei	8228
▁behar	8229
▁tun	8230
▁cor	8231
▁Pak	8232
▁Brasil	8233
ਜ਼	8234
უ	8235
สินค้า	8236
▁김	8237
مر	8238
▁болгон	8239
αν	8240
TE	8241
elo	8242
dz	8243
▁CO	8244
ե	8245
▁જે	8246
문	8247
▁זו	8248
ത്തിന്	8249
ço	8250
▁Voor	8251
ළ	8252
نی	8253
▁Israel	8254
▁ditt	8255
ams	8256
▁био	8257
کر	8258
ladi	8259
ëve	8260
发现	8261
band	8262
▁dövlət	8263
▁Ada	8264
യിൽ	8265
hl	8266
물	8267
▁Kim	8268
▁систем	8269
▁момент	8270
▁edi	8271
▁1999	8272
▁Sub	8273
▁UN	8274
skog	8275
জ	8276
找	8277
▁Կ	8278
▁ਹੋ	8279
▁해	8280
ഹ	8281
▁fod	8282
tv	8283
▁produkt	8284
த்தை	8285
▁علی	8286
rai	8287
▁atá	8288
umi	8289
▁Србије	8290
▁svet	8291
▁gode	8292
ран	8293
▁Shi	8294
▁ويو	8295
ében	8296
▁komen	8297
▁anderen	8298
▁hau	8299
צ	8300
▁Hvis	8301
▁Tro	8302
▁હોય	8303
▁କରି	8304
▁through	8305
▁never	8306
દ	8307
ග	8308
▁Ihre	8309
▁után	8310
▁hen	8311
电	8312
რა	8313
▁dio	8314
成为	8315
-3	8316
▁quy	8317
08	8318
ਜ	8319
作品	8320
▁Roma	8321
▁Kami	8322
ներին	8323
▁pedig	8324
▁مر	8325
ље	8326
連	8327
▁موقع	8328
▁Με	8329
▁veya	8330
Do	8331
▁Anti	8332
형	8333
▁Dengan	8334
Pa	8335
▁bata	8336
▁give	8337
▁vēl	8338
▁এক	8339
▁adipiscing	8340
▁Pag	8341
سا	8342
▁artikel	8343
▁jog	8344
bon	8345
された	8346
▁review	8347
▁ನ	8348
ør	8349
ლა	8350
▁bes	8351
▁Tom	8352
^	8353
▁동	8354
aca	8355
LA	8356
▁International	8357
▁होते	8358
GB	8359
▁cea	8360
▁viac	8361
▁үй	8362
-19	8363
ose	8364
▁olen	8365
▁gebruik	8366
▁també	8367
07	8368
▁trang	8369
▁लाख	8370
▁insan	8371
kir	8372
▁ملک	8373
▁cr	8374
六	8375
▁slik	8376
শ	8377
▁було	8378
▁dibdib	8379
iye	8380
▁cael	8381
▁those	8382
▁قانون	8383
萬	8384
▁Ev	8385
ობის	8386
家庭	8387
▁mungkin	8388
ौ	8389
ması	8390
▁mnie	8391
дық	8392
工程	8393
▁ea	8394
▁festival	8395
▁த	8396
adas	8397
▁කියලා	8398
DE	8399
▁punto	8400
▁يې	8401
igen	8402
นา	8403
▁aansoek	8404
llen	8405
▁etwas	8406
gro	8407
had	8408
▁små	8409
▁kaya	8410
▁გადა	8411
റ്റ	8412
▁حل	8413
▁Mr	8414
▁मी	8415
dek	8416
え	8417
ሮ	8418
ták	8419
wel	8420
め	8421
€	8422
▁dedi	8423
▁majd	8424
▁alte	8425
▁hii	8426
гер	8427
از	8428
▁kuma	8429
▁ás	8430
▁sido	8431
▁2014.	8432
nza	8433
▁جب	8434
्न	8435
▁PAS	8436
▁legal	8437
▁Kako	8438
▁3)	8439
▁který	8440
ции	8441
精神	8442
영	8443
▁donde	8444
ջ	8445
▁Ram	8446
col	8447
รับ	8448
▁waren	8449
പി	8450
▁Sverige	8451
igi	8452
▁escort	8453
ţie	8454
▁Mos	8455
▁dùng	8456
▁erat	8457
кер	8458
▁Vous	8459
tid	8460
ھ	8461
▁hierdie	8462
ങ്ങൾ	8463
▁edo	8464
門	8465
нда	8466
hang	8467
▁دولت	8468
▁ihan	8469
цу	8470
▁massasje	8471
▁daca	8472
▁dum	8473
aba	8474
▁lag	8475
ੋ	8476
▁bersama	8477
▁poli	8478
▁nhìn	8479
rada	8480
室	8481
จ	8482
τη	8483
▁tekst	8484
یک	8485
ři	8486
Č	8487
系统	8488
ина	8489
▁nepo	8490
▁بازی	8491
роб	8492
ées	8493
لی	8494
르	8495
▁dall	8496
сці	8497
▁Пра	8498
શ	8499
kam	8500
ість	8501
除了	8502
रे	8503
جو	8504
▁Projekt	8505
業	8506
▁ай	8507
oja	8508
ace	8509
▁ത	8510
▁자	8511
▁neste	8512
这是	8513
▁dagen	8514
▁şey	8515
bul	8516
kg	8517
▁eigen	8518
▁داخل	8519
dele	8520
▁మా	8521
投资	8522
▁آر	8523
▁după	8524
▁något	8525
▁тур	8526
ത്ത്	8527
क्	8528
▁vấn	8529
▁vind	8530
थ	8531
▁Бул	8532
чки	8533
▁оп	8534
▁kuko	8535
▁autem	8536
сі	8537
▁hän	8538
精	8539
von	8540
jn	8541
ալ	8542
iet	8543
▁банк	8544
ST	8545
▁صاحب	8546
▁dilakukan	8547
▁Hà	8548
issä	8549
生产	8550
film	8551
▁Би	8552
男	8553
gat	8554
▁Egy	8555
▁sekali	8556
.000	8557
dí	8558
imiz	8559
tera	8560
▁actual	8561
▁kind	8562
οι	8563
▁ነው፡፡	8564
ഷ	8565
▁pir	8566
▁მაგრამ	8567
▁России	8568
▁tror	8569
бай	8570
зу	8571
્યા	8572
کو	8573
▁PO	8574
NO	8575
▁ఎ	8576
▁muda	8577
▁Ü	8578
▁také	8579
ין	8580
మా	8581
▁dentro	8582
▁یکی	8583
▁genom	8584
提高	8585
▁verið	8586
tung	8587
功能	8588
▁hoc	8589
完全	8590
▁Casa	8591
▁Aber	8592
rë	8593
ος	8594
▁այս	8595
لىرى	8596
▁ord	8597
دی	8598
▁Ama	8599
▁klik	8600
▁berkata	8601
▁tarafından	8602
ฟ	8603
▁актив	8604
▁бул	8605
▁Xa	8606
maq	8607
▁kategori	8608
▁bao	8609
ատ	8610
imus	8611
ù	8612
yl	8613
▁Մ	8614
cja	8615
村	8616
▁دوست	8617
э	8618
▁জন্য	8619
▁Kwa	8620
▁ឆ្នាំ	8621
▁There	8622
▁kre	8623
▁aŭ	8624
▁کل	8625
▁mü	8626
tun	8627
▁maa	8628
▁privat	8629
ま	8630
▁ਇਹ	8631
צה	8632
▁shu	8633
▁bom	8634
мы	8635
▁hela	8636
ય	8637
ສ	8638
▁Ха	8639
▁دنیا	8640
▁کام	8641
합니다	8642
▁Sch	8643
▁geht	8644
▁kod	8645
▁vært	8646
▁Test	8647
ijos	8648
▁кога	8649
▁familia	8650
▁51	8651
▁giải	8652
▁స	8653
uka	8654
Ö	8655
tada	8656
▁υπο	8657
▁jego	8658
36	8659
▁ան	8660
▁két	8661
cje	8662
▁कम	8663
▁ста	8664
▁ست	8665
ści	8666
▁Ky	8667
▁anno	8668
▁Yn	8669
tı	8670
▁Tamil	8671
▁उत्तर	8672
كم	8673
▁پنهنجي	8674
▁hus	8675
ette	8676
▁Ah	8677
▁BA	8678
▁име	8679
▁kri	8680
求	8681
ják	8682
वे	8683
▁sini	8684
ավ	8685
▁గా	8686
▁እንዲ	8687
мир	8688
知道	8689
อีก	8690
ával	8691
▁بیان	8692
ଣ	8693
▁Ste	8694
▁noget	8695
▁(7)	8696
ラ	8697
▁moc	8698
iro	8699
▁آباد	8700
дің	8701
usi	8702
▁బ	8703
ؤ	8704
ple	8705
iska	8706
▁cá	8707
▁tiền	8708
八	8709
fal	8710
ప్	8711
▁Och	8712
▁bán	8713
▁Բ	8714
▁norske	8715
防	8716
වි	8717
▁fá	8718
▁180	8719
തു	8720
▁ton	8721
▁hul	8722
▁ماه	8723
▁politika	8724
▁thị	8725
gil	8726
TO	8727
一下	8728
▁వ	8729
bio	8730
▁sel	8731
北京	8732
က္	8733
▁щоб	8734
▁Quốc	8735
langan	8736
▁rast	8737
▁medio	8738
▁hingga	8739
▁인	8740
За	8741
▁ĉi	8742
▁pang	8743
▁Samsung	8744
න්න	8745
ກ	8746
Ա	8747
sol	8748
▁grund	8749
డు	8750
গ	8751
side	8752
▁band	8753
НА	8754
▁بد	8755
▁وسلم	8756
▁giờ	8757
რე	8758
▁Cer	8759
ihin	8760
▁पा	8761
US	8762
эн	8763
▁finden	8764
аар	8765
nc	8766
▁mara	8767
▁повече	8768
▁especial	8769
ow	8770
▁द	8771
▁gara	8772
gli	8773
▁memberikan	8774
▁лица	8775
▁hati	8776
▁صرف	8777
вод	8778
士	8779
ism	8780
▁simple	8781
ule	8782
▁pay	8783
處	8784
▁दिया	8785
▁asta	8786
▁ہونے	8787
yı	8788
but	8789
▁коли	8790
hető	8791
▁شروع	8792
▁står	8793
料	8794
oko	8795
▁brand	8796
gos	8797
dhi	8798
ajn	8799
▁primera	8800
▁Tam	8801
▁свет	8802
▁както	8803
care	8804
thu	8805
一起	8806
рт	8807
▁всех	8808
ского	8809
▁байсан	8810
▁спорт	8811
▁karakter	8812
tako	8813
▁биде	8814
▁Kr	8815
▁dokument	8816
▁داشته	8817
▁kvalitet	8818
▁هستند	8819
iai	8820
95	8821
ኝ	8822
zni	8823
sje	8824
안	8825
larında	8826
选择	8827
kle	8828
ბა	8829
твор	8830
dere	8831
تو	8832
ជា	8833
▁pic	8834
рек	8835
应	8836
▁మీ	8837
▁ப	8838
▁Å	8839
▁mama	8840
▁الر	8841
szer	8842
▁donc	8843
▁تن	8844
▁pena	8845
▁וואס	8846
分享	8847
zh	8848
香	8849
ரு	8850
шка	8851
IN	8852
▁profesional	8853
ация	8854
▁porn	8855
之后	8856
重要	8857
▁ønsker	8858
Si	8859
ต้อง	8860
lė	8861
帶	8862
ขึ้น	8863
▁dai	8864
▁кор	8865
ының	8866
▁encore	8867
бар	8868
展	8869
нь	8870
ид	8871
いる	8872
▁πιο	8873
案	8874
ще	8875
nel	8876
▁milli	8877
kirin	8878
▁tikai	8879
▁لیکن	8880
▁mirë	8881
พระ	8882
▁reklam	8883
▁Madrid	8884
သည်	8885
kiem	8886
▁dahil	8887
▁მისი	8888
yer	8889
երը	8890
▁promo	8891
▁22.	8892
cü	8893
41	8894
▁එ	8895
այ	8896
ði	8897
▁пе	8898
оз	8899
bang	8900
▁Del	8901
ö	8902
גע	8903
▁Mü	8904
ningar	8905
▁रही	8906
دىكى	8907
▁LED	8908
▁kay	8909
▁Jika	8910
ே	8911
So	8912
auto	8913
▁свою	8914
andi	8915
▁sector	8916
хан	8917
eau	8918
肉	8919
▁Naj	8920
▁проект	8921
AM	8922
ovanie	8923
青	8924
국	8925
▁болуп	8926
teen	8927
▁hvad	8928
である	8929
▁būti	8930
ಪ	8931
▁sud	8932
▁श	8933
▁53	8934
▁değil	8935
いた	8936
illä	8937
ில்	8938
▁þess	8939
kut	8940
ются	8941
▁Inc	8942
完	8943
▁іх	8944
oma	8945
sty	8946
▁עס	8947
曾	8948
aja	8949
▁Pla	8950
▁direct	8951
▁ام	8952
▁heel	8953
▁σ	8954
▁mukaan	8955
▁Φ	8956
ίες	8957
kie	8958
ถึง	8959
▁machen	8960
grad	8961
ith	8962
▁ئي	8963
▁bê	8964
ਬ	8965
▁things	8966
▁5-	8967
▁ljudi	8968
cel	8969
դ	8970
▁wana	8971
cul	8972
▁ಒಂದು	8973
▁Jahren	8974
▁Une	8975
金融	8976
მე	8977
▁때	8978
▁работы	8979
▁raha	8980
▁Biz	8981
▁terus	8982
▁54	8983
dzi	8984
▁ಮಾಡ	8985
isia	8986
დება	8987
照	8988
ですが	8989
inni	8990
पा	8991
▁KU	8992
sek	8993
▁poi	8994
▁vitae	8995
lec	8996
▁dine	8997
▁Nacional	8998
▁world	8999
டு	9000
报	9001
军	9002
iset	9003
▁සඳහා	9004
线	9005
▁Kara	9006
app	9007
ţii	9008
▁อ	9009
▁zuen	9010
到了	9011
zik	9012
rim	9013
bie	9014
्ने	9015
06	9016
▁Pol	9017
▁familie	9018
ții	9019
▁London	9020
存在	9021
ern	9022
▁sc	9023
▁करा	9024
сэн	9025
▁eines	9026
mış	9027
先生	9028
kä	9029
bl	9030
▁bài	9031
▁vasta	9032
▁bulan	9033
iche	9034
ments	9035
▁suas	9036
▁дома	9037
▁havde	9038
ዘ	9039
▁văn	9040
▁vero	9041
成功	9042
से	9043
▁trop	9044
▁공	9045
cije	9046
▁ihre	9047
▁bodo	9048
ουμε	9049
▁fy	9050
mani	9051
ție	9052
▁eri	9053
gere	9054
ամ	9055
班	9056
ವು	9057
င္	9058
PS	9059
▁gas	9060
▁ມີ	9061
▁wees	9062
▁taas	9063
▁ಮ	9064
網	9065
▁Creative	9066
ാൻ	9067
að	9068
▁RE	9069
▁vien	9070
▁50%	9071
▁могут	9072
ците	9073
▁dha	9074
带	9075
yu	9076
▁sure	9077
নি	9078
▁Vai	9079
ул	9080
▁ለመ	9081
▁General	9082
Mo	9083
stav	9084
组织	9085
▁නො	9086
став	9087
MP	9088
語	9089
▁aur	9090
alan	9091
OK	9092
▁මා	9093
тары	9094
政	9095
▁komme	9096
ວ່າ	9097
▁China	9098
▁عمر	9099
सं	9100
▁ومن	9101
▁groot	9102
▁56	9103
owym	9104
▁visi	9105
적으로	9106
ос	9107
いい	9108
unt	9109
ಿದೆ	9110
ನಿ	9111
▁Энэ	9112
▁Cal	9113
▁integr	9114
বি	9115
▁aina	9116
▁sak	9117
▁bay	9118
ohet	9119
lic	9120
ван	9121
дей	9122
▁نظام	9123
ာ	9124
▁gur	9125
ավոր	9126
SE	9127
ತಿ	9128
▁ef	9129
▁naše	9130
吗	9131
▁lama	9132
▁foar	9133
נות	9134
▁ollut	9135
tz	9136
▁зна	9137
▁ପ	9138
ਲਾ	9139
اف	9140
市場	9141
सँग	9142
iek	9143
们	9144
▁dėl	9145
fall	9146
▁адам	9147
▁Parti	9148
▁bene	9149
單	9150
▁جان	9151
▁melihat	9152
ência	9153
ио	9154
शी	9155
▁ảnh	9156
▁stand	9157
私	9158
▁призна	9159
▁minut	9160
▁مطابق	9161
▁tog	9162
▁मे	9163
▁karşı	9164
κα	9165
bia	9166
rup	9167
▁damit	9168
nad	9169
▁마	9170
ኛ	9171
▁Pentru	9172
▁Fri	9173
▁ח	9174
▁ସ	9175
▁acum	9176
ရေး	9177
려	9178
▁हुए	9179
alta	9180
▁לו	9181
ү	9182
יו	9183
▁élet	9184
33	9185
达	9186
학	9187
▁बस	9188
plat	9189
bot	9190
▁page	9191
▁gada	9192
-10	9193
▁pessoas	9194
▁ਹੀ	9195
▁gyda	9196
▁калі	9197
udi	9198
▁95	9199
足	9200
▁park	9201
▁Rais	9202
वी	9203
▁él	9204
مه	9205
▁lê	9206
▁Gal	9207
▁Att	9208
▁olur	9209
朝	9210
▁Các	9211
張	9212
▁אי	9213
▁ह	9214
ček	9215
▁báo	9216
spe	9217
لىك	9218
▁bel	9219
▁अन्य	9220
יר	9221
mini	9222
Э	9223
初	9224
▁కా	9225
▁gen	9226
aka	9227
бер	9228
▁nulla	9229
▁lần	9230
ทั้ง	9231
▁unde	9232
ude	9233
▁зі	9234
stel	9235
▁महिला	9236
iş	9237
▁össze	9238
nam	9239
ၿပီး	9240
ىنى	9241
▁रहेको	9242
书	9243
▁gente	9244
தான்	9245
▁thương	9246
▁sier	9247
kes	9248
ρο	9249
า	9250
▁Live	9251
▁två	9252
▁пак	9253
char	9254
▁grandes	9255
เรา	9256
ρί	9257
查	9258
▁لپاره	9259
▁stabil	9260
▁भारतीय	9261
зі	9262
▁masyarakat	9263
▁алып	9264
▁Jos	9265
▁Mad	9266
▁MA	9267
▁Hotels	9268
▁β	9269
▁olisi	9270
46	9271
▁dana	9272
kai	9273
▁sosial	9274
轉	9275
nir	9276
應	9277
▁magyar	9278
пи	9279
▁تحت	9280
ഡ്	9281
▁чу	9282
تان	9283
llo	9284
48	9285
▁masalah	9286
▁места	9287
队	9288
нан	9289
▁nakon	9290
ına	9291
▁Sri	9292
▁trở	9293
▁ثم	9294
▁Ol	9295
ность	9296
str	9297
yin	9298
ะ	9299
დან	9300
▁đẹp	9301
род	9302
▁eile	9303
▁ز	9304
ാം	9305
anak	9306
লা	9307
▁Nr	9308
▁вер	9309
vanje	9310
▁maior	9311
▁Full	9312
வா	9313
ának	9314
▁Zi	9315
uli	9316
▁într	9317
▁58	9318
ther	9319
කි	9320
නි	9321
ಿಗೆ	9322
39	9323
នេះ	9324
▁sent	9325
ਿ	9326
▁న	9327
▁કરો	9328
▁verk	9329
AN	9330
▁जी	9331
▁cookie	9332
▁ese	9333
انی	9334
▁Lei	9335
wch	9336
पी	9337
▁đều	9338
nsa	9339
提升	9340
υς	9341
▁tale	9342
▁Dom	9343
▁Tel	9344
▁Forum	9345
▁ک	9346
ļ	9347
tig	9348
ായി	9349
▁ε	9350
▁name	9351
▁makan	9352
▁mwaka	9353
며	9354
▁جائے	9355
▁בא	9356
cións	9357
全国	9358
▁बन	9359
▁mě	9360
▁bile	9361
금	9362
▁Ю	9363
Α	9364
▁85	9365
▁nə	9366
▁godina	9367
コ	9368
aran	9369
isch	9370
tól	9371
▁bawah	9372
เข้า	9373
▁jul	9374
riya	9375
लो	9376
νο	9377
形	9378
發展	9379
ింది	9380
cas	9381
▁watu	9382
奇	9383
▁format	9384
▁Catalunya	9385
ී	9386
ug	9387
ိ	9388
▁aqui	9389
▁tuli	9390
ació	9391
ï	9392
less	9393
▁لت	9394
▁является	9395
▁bonus	9396
▁한국	9397
nál	9398
▁تهران	9399
▁tập	9400
ಹ	9401
კ	9402
▁РФ	9403
तो	9404
gs	9405
▁жұмыс	9406
▁intr	9407
▁energia	9408
▁ଏକ	9409
ــ	9410
▁ന	9411
▁후	9412
认为	9413
▁ಸ	9414
▁pihak	9415
וני	9416
νη	9417
▁ఏ	9418
ٍ	9419
图	9420
座	9421
▁სი	9422
▁προσ	9423
▁צ	9424
KA	9425
基	9426
▁mindre	9427
▁استان	9428
▁nagyon	9429
ъ	9430
isin	9431
▁hóa	9432
▁process	9433
SP	9434
▁Nội	9435
▁Су	9436
質	9437
ใหญ่	9438
▁сум	9439
ೋ	9440
သော	9441
▁triển	9442
▁तीन	9443
-18	9444
ো	9445
▁؟	9446
▁ander	9447
وت	9448
写	9449
▁미	9450
▁(4	9451
거	9452
▁בית	9453
▁continua	9454
比較	9455
▁daudz	9456
▁tiếng	9457
▁fund	9458
aire	9459
活	9460
ñ	9461
▁vista	9462
ének	9463
▁72	9464
కా	9465
總	9466
лары	9467
▁profil	9468
▁mắt	9469
差	9470
▁топ	9471
▁cuenta	9472
▁`	9473
▁prema	9474
▁غ	9475
▁●	9476
ρι	9477
▁말	9478
არ	9479
yon	9480
ლე	9481
hon	9482
ლის	9483
▁ම	9484
ət	9485
gh	9486
▁Ng	9487
kit	9488
▁ए	9489
▁ori	9490
heim	9491
یا	9492
▁Kinder	9493
win	9494
▁când	9495
ια	9496
▁lesz	9497
▁pres	9498
▁مواد	9499
sze	9500
マ	9501
▁нови	9502
ír	9503
▁Ра	9504
▁saam	9505
Li	9506
ეთ	9507
000	9508
လို	9509
▁viele	9510
ș	9511
▁साल	9512
03	9513
한다	9514
ös	9515
▁අද	9516
ję	9517
pres	9518
▁soll	9519
▁NO	9520
▁magna	9521
ayo	9522
tic	9523
思	9524
▁glad	9525
тка	9526
参加	9527
強	9528
▁Nous	9529
▁strategi	9530
తి	9531
▁ఉన్న	9532
▁bahawa	9533
បាន	9534
▁menn	9535
▁tinggi	9536
ദ	9537
▁diferentes	9538
▁Vel	9539
▁ш	9540
▁ఓ	9541
▁люди	9542
▁мал	9543
rka	9544
▁cos	9545
▁savu	9546
ပြီး	9547
ره	9548
ým	9549
02	9550
▁ön	9551
▁Rad	9552
▁кар	9553
ുന്നു	9554
▁ເປັນ	9555
▁خپل	9556
曲	9557
▁belum	9558
▁23.	9559
▁הה	9560
▁человек	9561
ออก	9562
▁Just	9563
▁حاصل	9564
šti	9565
kali	9566
öl	9567
▁cuộc	9568
rei	9569
▁leh	9570
▁1998	9571
▁Fo	9572
▁ప్ర	9573
▁tener	9574
しました	9575
される	9576
▁አንድ	9577
▁Over	9578
▁کردن	9579
▁مجلس	9580
เงิน	9581
▁многу	9582
▁જો	9583
▁दे	9584
▁בו	9585
除	9586
▁ancora	9587
▁ris	9588
▁قیمت	9589
შ	9590
▁হবে	9591
▁хүн	9592
▁Fel	9593
圖	9594
▁jalan	9595
▁música	9596
▁ნა	9597
▁Tas	9598
یہ	9599
▁avant	9600
ador	9601
ність	9602
ाचे	9603
▁tijd	9604
▁dil	9605
chod	9606
▁mp	9607
▁იმ	9608
▁dự	9609
▁көп	9610
▁lực	9611
共同	9612
tit	9613
▁lange	9614
▁sett	9615
▁ישראל	9616
liv	9617
লে	9618
sio	9619
▁aug	9620
▁Mp	9621
▁BE	9622
▁विकास	9623
▁Res	9624
▁ən	9625
▁Under	9626
▁Hay	9627
▁ერთ	9628
▁ទៅ	9629
▁فیلم	9630
▁Bay	9631
之一	9632
▁ih	9633
ową	9634
inio	9635
同时	9636
kis	9637
▁sha	9638
▁pertama	9639
voj	9640
▁otro	9641
▁كانت	9642
▁quo	9643
▁alltid	9644
▁già	9645
ಗಳಲ್ಲಿ	9646
▁могу	9647
▁онлайн	9648
▁παρα	9649
وار	9650
法律	9651
пен	9652
▁bort	9653
தா	9654
▁question	9655
ాడు	9656
nne	9657
▁२०	9658
▁३	9659
▁fått	9660
▁этот	9661
」,	9662
▁inne	9663
റി	9664
已經	9665
▁ditu	9666
▁enda	9667
үү	9668
▁þ	9669
▁ezt	9670
▁אחד	9671
-2018	9672
रो	9673
▁procent	9674
▁زیر	9675
▁ол	9676
▁AM	9677
kirja	9678
还有	9679
▁काठमाडौं	9680
▁হয়	9681
只要	9682
▁spor	9683
結果	9684
ис	9685
▁մեր	9686
▁период	9687
CO	9688
▁gaat	9689
▁тези	9690
▁visita	9691
▁presidente	9692
▁verir	9693
ская	9694
sjon	9695
▁ம	9696
网站	9697
PO	9698
▁නි	9699
と思います	9700
▁glas	9701
gio	9702
ht	9703
▁ата	9704
▁үйл	9705
acji	9706
▁жол	9707
▁தமிழ்	9708
▁cur	9709
▁sebelum	9710
▁මෙම	9711
▁πως	9712
AS	9713
。」	9714
努力	9715
▁Jesus	9716
▁š	9717
મા	9718
מי	9719
▁proprio	9720
▁בר	9721
▁خدا	9722
ula	9723
▁dike	9724
લા	9725
ਤਾ	9726
▁интернет	9727
vez	9728
ाई	9729
源	9730
雨	9731
ตา	9732
▁sva	9733
ச	9734
▁Anh	9735
请	9736
ako	9737
▁posta	9738
▁ના	9739
▁olika	9740
▁Bakı	9741
▁tour	9742
▁anys	9743
提	9744
ετε	9745
また	9746
▁כדי	9747
▁حضرت	9748
▁Ա	9749
ष	9750
江	9751
▁гар	9752
лож	9753
તી	9754
▁ক	9755
ň	9756
▁byl	9757
▁sida	9758
ვ	9759
▁دغه	9760
На	9761
▁Ли	9762
▁Sul	9763
▁ES	9764
▁ему	9765
قى	9766
▁nici	9767
ον	9768
土	9769
朋友	9770
drž	9771
லை	9772
ског	9773
tru	9774
ţia	9775
సి	9776
▁yıl	9777
▁май	9778
cam	9779
▁EL	9780
▁कार्य	9781
▁civil	9782
▁Пре	9783
▁என்ன	9784
rze	9785
ელი	9786
▁للم	9787
单	9788
▁diverse	9789
▁try	9790
▁Off	9791
▁kerja	9792
انو	9793
ható	9794
▁Apa	9795
▁hak	9796
și	9797
ек	9798
ଦ	9799
▁nieuwe	9800
ούς	9801
bank	9802
▁open	9803
▁AL	9804
▁больш	9805
သာ	9806
▁nego	9807
該	9808
▁cultura	9809
itatea	9810
干	9811
▁labai	9812
▁jobb	9813
▁Trung	9814
gg	9815
▁diye	9816
ං	9817
ခ	9818
▁ବା	9819
▁רק	9820
ats	9821
▁nä	9822
ற	9823
▁Գ	9824
emos	9825
▁onun	9826
卻	9827
▁dịch	9828
▁falta	9829
ată	9830
▁الل	9831
▁zwei	9832
▁преди	9833
మ్	9834
اني	9835
▁student	9836
bare	9837
▁když	9838
報	9839
tka	9840
▁tapa	9841
▁begin	9842
tab	9843
▁something	9844
ನ್ನು	9845
▁JA	9846
යෙන්	9847
▁kanyang	9848
ೀ	9849
▁mismo	9850
skim	9851
▁Ac	9852
মা	9853
ایی	9854
īgi	9855
ပ	9856
▁απ	9857
ppen	9858
▁hace	9859
jak	9860
▁nej	9861
ând	9862
▁ví	9863
▁metų	9864
▁Dy	9865
▁bedre	9866
ქ	9867
▁видео	9868
မှု	9869
tě	9870
हरू	9871
▁kamera	9872
▁ina	9873
Ta	9874
ത്തിൽ	9875
▁Pat	9876
▁aquí	9877
ኩ	9878
▁central	9879
▁Ме	9880
▁finde	9881
▁premier	9882
blog	9883
▁hidup	9884
できる	9885
业	9886
▁ва	9887
нен	9888
校	9889
来说	9890
▁бути	9891
▁Hari	9892
rian	9893
ठ	9894
▁כמו	9895
▁fond	9896
ència	9897
ait	9898
▁trọng	9899
▁būs	9900
▁nom	9901
SI	9902
▁Hot	9903
got	9904
ορ	9905
ční	9906
▁National	9907
▁wake	9908
屋	9909
▁Për	9910
ሽ	9911
ਰਾ	9912
에게	9913
▁kuna	9914
▁שנ	9915
真的	9916
▁थी	9917
ിയ	9918
▁fatto	9919
▁Max	9920
кра	9921
larini	9922
▁dugu	9923
ário	9924
▁That	9925
▁TO	9926
rse	9927
erte	9928
▁tiden	9929
▁μετά	9930
▁zal	9931
▁bla	9932
▁अध्यक्ष	9933
▁ז	9934
▁pari	9935
▁Instagram	9936
▁faut	9937
▁ім	9938
▁jetzt	9939
钱	9940
इ	9941
▁France	9942
▁kohta	9943
▁била	9944
пер	9945
酒	9946
ኑ	9947
▁റെ	9948
▁ոչ	9949
▁цього	9950
▁Χ	9951
ပါ။	9952
▁около	9953
ење	9954
-12	9955
IS	9956
ති	9957
▁chưa	9958
▁يمكن	9959
▁NE	9960
▁tablet	9961
▁Pir	9962
▁grand	9963
▁←	9964
▁હતી	9965
ging	9966
▁són	9967
Ä	9968
▁comp	9969
ər	9970
ลง	9971
▁Ok	9972
നി	9973
▁प्रति	9974
▁hoạt	9975
িক	9976
▁других	9977
қ	9978
ിച്ചു	9979
سر	9980
▁aad	9981
னை	9982
▁tor	9983
ım	9984
▁bất	9985
լ	9986
▁работи	9987
ତା	9988
且	9989
▁олон	9990
gó	9991
▁şekilde	9992
▁lett	9993
港	9994
లను	9995
▁devam	9996
▁nema	9997
▁jeszcze	9998
▁смо	9999
▁SI	10000
II	10001
▁own	10002
▁गरेका	10003
▁бил	10004
。(	10005
▁bl	10006
得到	10007
ሩ	10008
▁chọn	10009
▁spel	10010
hir	10011
▁euros	10012
▁Day	10013
▁primo	10014
mark	10015
nni	10016
▁Dal	10017
环境	10018
වත්	10019
റ്റ്	10020
▁(8)	10021
▁Qu	10022
vio	10023
▁lidt	10024
▁दी	10025
گی	10026
వు	10027
▁terjadi	10028
▁tum	10029
sä	10030
▁62	10031
▁Ку	10032
sport	10033
බ	10034
mg	10035
λα	10036
▁tiêu	10037
نو	10038
▁రా	10039
▁tìm	10040
лось	10041
По	10042
算	10043
▁700	10044
カ	10045
▁staat	10046
생	10047
▁peng	10048
▁aici	10049
叫	10050
ുള്ള	10051
▁Č	10052
ቆ	10053
▁Uz	10054
▁ನಿಮ್ಮ	10055
▁erre	10056
58	10057
stru	10058
чин	10059
cc	10060
lina	10061
হ	10062
ಡ್	10063
▁segundo	10064
mä	10065
▁প্র	10066
िंग	10067
프	10068
די	10069
▁Nova	10070
▁Cam	10071
▁adres	10072
▁כך	10073
▁Black	10074
bak	10075
▁nell	10076
▁Cel	10077
▁99	10078
hari	10079
▁पण	10080
miseks	10081
▁Lan	10082
▁ដោយ	10083
qi	10084
▁ሊ	10085
▁Net	10086
ιά	10087
гор	10088
▁ඇත	10089
▁ос	10090
▁Up	10091
▁vei	10092
▁ख	10093
▁жизни	10094
▁unei	10095
▁استعمال	10096
៖	10097
િ	10098
▁гр	10099
數	10100
MI	10101
▁مصر	10102
皮	10103
llinen	10104
ေ	10105
ை	10106
▁premi	10107
届	10108
影响	10109
▁gera	10110
TM	10111
▁tüm	10112
▁harga	10113
▁]	10114
ວ	10115
taj	10116
▁tím	10117
▁նոր	10118
短	10119
樂	10120
сыз	10121
être	10122
▁ಅವರ	10123
▁повеќе	10124
לה	10125
▁κι	10126
▁anima	10127
▁hér	10128
із	10129
ках	10130
▁पहले	10131
进	10132
ans	10133
組	10134
data	10135
▁töö	10136
යන්	10137
ਨਾ	10138
დის	10139
▁någon	10140
▁मु	10141
▁Tele	10142
▁داده	10143
verk	10144
அ	10145
▁Ven	10146
ոն	10147
ในการ	10148
▁57	10149
▁manusia	10150
ujú	10151
▁oko	10152
▁xem	10153
▁😉	10154
▁quem	10155
▁vás	10156
▁ವಿ	10157
れ	10158
毛	10159
▁Oh	10160
增加	10161
▁μόνο	10162
▁selbst	10163
borg	10164
▁trata	10165
系統	10166
nova	10167
▁млн	10168
кс	10169
ër	10170
shëm	10171
▁дело	10172
▁ireo	10173
▁petit	10174
லா	10175
▁little	10176
▁izango	10177
sul	10178
.10.	10179
sında	10180
▁baada	10181
だった	10182
▁norsk	10183
▁פי	10184
raj	10185
ney	10186
link	10187
βα	10188
▁enkelt	10189
кор	10190
բ	10191
▁sedang	10192
▁त्या	10193
▁było	10194
▁सि	10195
کار	10196
▁ថា	10197
வே	10198
▁ಇ	10199
തി	10200
▁sê	10201
zko	10202
▁آئی	10203
▁fort	10204
▁terug	10205
දා	10206
▁कोई	10207
▁Paul	10208
áin	10209
▁marka	10210
저	10211
▁افغان	10212
▁בע	10213
▁клас	10214
▁हम	10215
▁გან	10216
nka	10217
▁nhau	10218
▁zaidi	10219
▁Milli	10220
ző	10221
ന്റെ	10222
▁څخه	10223
▁meno	10224
▁vairāk	10225
оў	10226
▁جانب	10227
ဆို	10228
രി	10229
ì	10230
мін	10231
▁Sem	10232
šanu	10233
▁arte	10234
мат	10235
ເປັນ	10236
park	10237
推	10238
மாக	10239
▁eo	10240
▁συν	10241
သား	10242
▁lavoro	10243
▁خط	10244
战	10245
ଲେ	10246
▁banda	10247
video	10248
▁ปี	10249
▁Amb	10250
▁metu	10251
اں	10252
800	10253
kort	10254
▁Gre	10255
▁Það	10256
▁Bio	10257
lio	10258
लि	10259
▁dessa	10260
▁काही	10261
▁дня	10262
になる	10263
▁hatte	10264
▁интерес	10265
eret	10266
▁ret	10267
▁أنه	10268
▁dog	10269
syon	10270
▁Berlin	10271
▁када	10272
▁USB	10273
▁soit	10274
▁ži	10275
▁wakati	10276
▁склад	10277
▁већ	10278
▁estos	10279
իկ	10280
ijo	10281
のですが	10282
▁mars	10283
▁dẫn	10284
▁1,5	10285
اط	10286
pr	10287
zat	10288
34	10289
▁توجه	10290
▁cred	10291
▁fino	10292
個人	10293
网络	10294
▁quello	10295
▁stort	10296
▁मात्र	10297
▁arra	10298
pod	10299
▁Kaj	10300
▁ela	10301
▁کن	10302
ڈ	10303
▁público	10304
▁lúc	10305
▁х	10306
गा	10307
▁aller	10308
maya	10309
创新	10310
▁Türk	10311
選擇	10312
▁cena	10313
▁gri	10314
▁Tapi	10315
ācijas	10316
▁yaitu	10317
▁ვერ	10318
▁jenter	10319
iamo	10320
ums	10321
▁vetëm	10322
▁capital	10323
▁스	10324
tine	10325
▁fois	10326
▁Мар	10327
▁човек	10328
▁sami	10329
之前	10330
യ്	10331
▁old	10332
▁Für	10333
ális	10334
▁შემდეგ	10335
▁head	10336
дат	10337
▁모	10338
▁פ	10339
▁Jy	10340
ovali	10341
-5	10342
ภาพ	10343
野	10344
▁उप	10345
素	10346
дел	10347
▁Movie	10348
▁mbi	10349
Ο	10350
出来	10351
▁úgy	10352
វ	10353
▁болып	10354
္	10355
派	10356
▁друг	10357
▁ल	10358
冷	10359
dul	10360
▁langsung	10361
▁arba	10362
tuar	10363
ਦਾ	10364
▁cidade	10365
ping	10366
▁הנ	10367
▁Oo	10368
▁oficial	10369
னி	10370
▁rằng	10371
▁הש	10372
▁महा	10373
▁Pie	10374
▁պետք	10375
ują	10376
▁mitt	10377
ंग	10378
交流	10379
▁원	10380
▁ਇੱਕ	10381
sc	10382
▁น	10383
rig	10384
▁weiter	10385
▁क्षेत्र	10386
cze	10387
lığı	10388
ère	10389
▁leta	10390
ulo	10391
ел	10392
ngu	10393
тик	10394
▁önce	10395
基本	10396
ći	10397
मी	10398
▁मैं	10399
ből	10400
▁شوي	10401
▁proc	10402
ує	10403
▁Kol	10404
▁Под	10405
章	10406
▁වගේ	10407
▁مون	10408
是否	10409
ик	10410
▁kuri	10411
▁πρέπει	10412
্য	10413
▁Vad	10414
▁empresas	10415
▁прави	10416
جا	10417
jev	10418
शा	10419
▁dni	10420
▁Vir	10421
▁sense	10422
▁इन	10423
وم	10424
▁saka	10425
▁जानकारी	10426
▁भ	10427
మి	10428
Ge	10429
▁manier	10430
▁első	10431
▁ٿا	10432
inter	10433
▁passa	10434
▁thật	10435
选	10436
hur	10437
▁xu	10438
よ	10439
▁Hel	10440
jų	10441
aux	10442
▁nic	10443
▁Já	10444
▁Ud	10445
тік	10446
ші	10447
႕	10448
ある	10449
▁تاریخ	10450
▁زبان	10451
國際	10452
▁Hun	10453
▁것이	10454
vod	10455
听	10456
체	10457
▁putea	10458
내	10459
▁selama	10460
2)	10461
▁Ed	10462
▁Ara	10463
čių	10464
unun	10465
ските	10466
▁سازمان	10467
▁байх	10468
▁دار	10469
ୟ	10470
tais	10471
▁број	10472
โดย	10473
▁kredit	10474
▁kutoka	10475
Te	10476
▁uur	10477
ణ	10478
ட்டி	10479
ენ	10480
▁nota	10481
وه	10482
▁اینکه	10483
ries	10484
λη	10485
▁선	10486
制度	10487
فت	10488
▁بیشتر	10489
ल्या	10490
地方	10491
▁다른	10492
▁juu	10493
▁بہت	10494
▁lat	10495
▁પ્ર	10496
致	10497
▁שמ	10498
▁così	10499
dhe	10500
用户	10501
值	10502
▁вот	10503
ുകള്	10504
▁بند	10505
ію	10506
▁לש	10507
uku	10508
ाला	10509
▁جنهن	10510
త్	10511
▁risk	10512
▁weg	10513
▁PRO	10514
▁lịch	10515
łam	10516
cor	10517
價	10518
ath	10519
▁2013.	10520
kwa	10521
▁ilgili	10522
▁خاص	10523
▁조	10524
▁χ	10525
ď	10526
▁Não	10527
mé	10528
▁Bon	10529
ေတာ့	10530
مۇ	10531
▁setelah	10532
▁ነገር	10533
shop	10534
ուր	10535
▁nesta	10536
▁wanita	10537
▁primeiro	10538
▁haqqında	10539
யின்	10540
radi	10541
▁West	10542
०	10543
▁Alt	10544
abb	10545
pä	10546
調	10547
▁mea	10548
▁وهو	10549
▁कार्यक्रम	10550
▁itse	10551
tà	10552
ðar	10553
▁sum	10554
▁φ	10555
▁Má	10556
has	10557
▁número	10558
▁बहुत	10559
福	10560
▁gjort	10561
บน	10562
▁aquesta	10563
ība	10564
̀	10565
rg	10566
র্	10567
▁kuni	10568
菜	10569
▁gjithë	10570
▁Muhammad	10571
кою	10572
ень	10573
▁november	10574
▁melhor	10575
▁color	10576
▁güzel	10577
▁política	10578
▁निर्माण	10579
ران	10580
Mi	10581
ней	10582
▁temu	10583
▁iets	10584
華	10585
▁1997	10586
▁tên	10587
▁rest	10588
▁ня	10589
▁mudah	10590
cum	10591
▁Come	10592
mina	10593
ან	10594
▁uten	10595
▁تولید	10596
oh	10597
ღ	10598
รถ	10599
▁nostro	10600
▁sekolah	10601
હ	10602
vanja	10603
▁Ни	10604
rí	10605
ними	10606
▁має	10607
才能	10608
约	10609
▁ngoài	10610
ME	10611
ції	10612
第二	10613
▁Daten	10614
నీ	10615
▁mercado	10616
long	10617
qo	10618
▁हर	10619
iniai	10620
▁İstanbul	10621
권	10622
改	10623
λι	10624
Co	10625
▁peste	10626
dla	10627
tto	10628
법	10629
▁kembali	10630
κο	10631
lou	10632
▁ру	10633
ությամբ	10634
▁fazla	10635
▁dacă	10636
需求	10637
menn	10638
▁Hand	10639
▁muut	10640
▁ဦး	10641
კა	10642
▁μπορεί	10643
▁type	10644
ରା	10645
▁MP	10646
▁kra	10647
難	10648
▁sar	10649
เรื่อง	10650
▁وفي	10651
▁دانشگاه	10652
ева	10653
ків	10654
фа	10655
▁Tal	10656
▁thống	10657
▁recept	10658
▁sila	10659
▁They	10660
laga	10661
▁10%	10662
▁Mil	10663
ंड	10664
▁राज्य	10665
▁{	10666
šte	10667
なら	10668
dina	10669
▁ren	10670
ි	10671
kre	10672
▁αυτή	10673
▁koncert	10674
▁తన	10675
▁דעם	10676
▁ён	10677
owi	10678
даг	10679
2011	10680
rp	10681
▁vz	10682
lui	10683
kh	10684
Mu	10685
wat	10686
ார்	10687
▁đổi	10688
▁aika	10689
чі	10690
ستان	10691
▁Meg	10692
2012	10693
種	10694
ność	10695
▁school	10696
nah	10697
бор	10698
▁Ham	10699
400	10700
▁quyền	10701
▁vier	10702
▁kurs	10703
▁tap	10704
או	10705
him	10706
ගෙන	10707
▁stran	10708
▁جنگ	10709
हा	10710
街	10711
ください	10712
nn	10713
ံ	10714
600	10715
მო	10716
liche	10717
യോ	10718
▁тим	10719
үн	10720
居	10721
▁primeira	10722
▁server	10723
▁perché	10724
实现	10725
▁rätt	10726
orang	10727
▁когато	10728
▁Vil	10729
应该	10730
▁العام	10731
英	10732
ように	10733
iyo	10734
ವೇ	10735
设计	10736
εται	10737
TI	10738
ilen	10739
▁april	10740
ဝ	10741
▁Tidak	10742
▁seit	10743
aji	10744
ville	10745
▁Bil	10746
▁permet	10747
▁väga	10748
▁paa	10749
▁argument	10750
▁کړي	10751
Pro	10752
கா	10753
▁الخ	10754
▁වී	10755
▁hang	10756
▁этой	10757
кар	10758
▁sheegay	10759
▁Group	10760
▁nord	10761
SK	10762
ction	10763
▁mucho	10764
▁nytt	10765
交通	10766
ích	10767
ائ	10768
شن	10769
Com	10770
vati	10771
▁Nur	10772
യാ	10773
▁הם	10774
具	10775
▁region	10776
▁sim	10777
▁status	10778
ezi	10779
紅	10780
बा	10781
sız	10782
亚	10783
级	10784
▁sebe	10785
▁Deze	10786
양	10787
тов	10788
▁هل	10789
▁nchini	10790
slu	10791
nau	10792
タ	10793
cis	10794
急	10795
ика	10796
▁вид	10797
sso	10798
▁kaikki	10799
న్న	10800
sil	10801
▁unsere	10802
▁하는	10803
▁cela	10804
▁kwamba	10805
▁орган	10806
▁thân	10807
专业	10808
ผม	10809
▁seine	10810
▁WordPress	10811
▁tega	10812
כל	10813
▁ই	10814
▁digunakan	10815
န	10816
▁رئيس	10817
ที่มี	10818
keun	10819
ට්	10820
ous	10821
▁ት	10822
▁ادامه	10823
ሌ	10824
turi	10825
▁mij	10826
▁Poli	10827
gla	10828
もの	10829
þ	10830
▁στους	10831
▁மு	10832
▁És	10833
▁mitä	10834
тің	10835
alis	10836
62	10837
▁domu	10838
▁kel	10839
ants	10840
ండి	10841
▁Let	10842
▁sko	10843
▁ենք	10844
arte	10845
▁few	10846
人员	10847
▁nữa	10848
ск	10849
▁दो	10850
ецца	10851
▁avea	10852
ρε	10853
CE	10854
▁KA	10855
▁हुन	10856
əm	10857
ाचा	10858
▁ಹಾಗೂ	10859
▁ந	10860
▁vari	10861
▁favor	10862
dum	10863
မႈ	10864
▁PR	10865
▁cukup	10866
▁aceasta	10867
▁Sir	10868
not	10869
kad	10870
服	10871
▁mér	10872
től	10873
ového	10874
▁κάθε	10875
▁علم	10876
▁јер	10877
▁سم	10878
▁श्री	10879
▁huis	10880
▁taka	10881
Ə	10882
的な	10883
jin	10884
▁alam	10885
जा	10886
siya	10887
نې	10888
則	10889
ரா	10890
▁sowie	10891
▁ساعت	10892
▁drugi	10893
лог	10894
▁quốc	10895
▁گئی	10896
▁பா	10897
微	10898
▁facebook	10899
▁mọi	10900
reg	10901
ithe	10902
▁मोदी	10903
▁mida	10904
▁alan	10905
że	10906
лек	10907
▁අපේ	10908
▁zato	10909
kot	10910
ಜ	10911
ತ್	10912
مل	10913
▁толькі	10914
付	10915
owo	10916
ευ	10917
צי	10918
配	10919
▁Fryslân	10920
▁Ž	10921
▁passe	10922
mh	10923
ॉ	10924
lərinin	10925
niki	10926
LI	10927
▁როგორც	10928
imet	10929
板	10930
IP	10931
▁around	10932
ၾက	10933
▁Mur	10934
▁Når	10935
▁laat	10936
تون	10937
▁ohne	10938
ಾಗ	10939
▁مهم	10940
▁content	10941
եք	10942
▁пот	10943
▁яка	10944
37	10945
စာ	10946
▁ব	10947
▁мало	10948
आ	10949
▁która	10950
рас	10951
dne	10952
▁เพราะ	10953
▁בת	10954
idi	10955
系	10956
nap	10957
▁rep	10958
▁Spa	10959
▁حضور	10960
▁lainnya	10961
▁Бу	10962
લી	10963
▁tudo	10964
▁faci	10965
нова	10966
實	10967
▁tê	10968
რო	10969
河	10970
له	10971
▁ს	10972
եղ	10973
pati	10974
▁software	10975
▁quyết	10976
liği	10977
▁dzieci	10978
▁hr	10979
▁Ihr	10980
lərə	10981
ቡ	10982
▁вече	10983
ులు	10984
票	10985
▁сега	10986
▁rundt	10987
▁mostra	10988
▁سفر	10989
▁boli	10990
38	10991
ებში	10992
▁사용	10993
▁2-3	10994
▁មិន	10995
▁olub	10996
ною	10997
лей	10998
eux	10999
baar	11000
▁single	11001
ժ	11002
问	11003
▁пока	11004
接受	11005
▁경우	11006
▁eso	11007
▁Mkuu	11008
від	11009
rov	11010
ನೆ	11011
▁кара	11012
拍	11013
▁دوران	11014
▁past	11015
gl	11016
▁ਉਸ	11017
▁teknik	11018
▁kör	11019
▁عند	11020
▁Roz	11021
▁Nach	11022
▁industri	11023
▁viene	11024
يان	11025
▁ला	11026
▁kraj	11027
ojë	11028
▁mí	11029
cle	11030
▁상	11031
lai	11032
-20	11033
▁cost	11034
▁debe	11035
eh	11036
▁firm	11037
ေသာ	11038
▁какво	11039
AB	11040
aigh	11041
▁phương	11042
▁дали	11043
fici	11044
မှ	11045
▁första	11046
▁अपनी	11047
lica	11048
rib	11049
cker	11050
▁اړه	11051
jum	11052
▁необходимо	11053
гар	11054
డం	11055
dé	11056
▁jų	11057
▁එකක්	11058
▁Neu	11059
▁pula	11060
wang	11061
▁Trans	11062
kop	11063
▁надо	11064
iam	11065
▁ner	11066
ingu	11067
▁વ	11068
▁вже	11069
▁ก	11070
anno	11071
程	11072
yd	11073
νε	11074
▁2020	11075
以下	11076
ಯಾ	11077
ෝ	11078
▁എന്ന്	11079
▁лі	11080
▁dok	11081
▁մեջ	11082
▁jis	11083
▁Kul	11084
▁оно	11085
эд	11086
massa	11087
กว่า	11088
nna	11089
site	11090
▁होती	11091
とは	11092
▁ہر	11093
▁nếu	11094
▁바	11095
▁asa	11096
還是	11097
lerde	11098
▁cerca	11099
▁seguir	11100
యా	11101
▁мора	11102
▁اهو	11103
ਗ	11104
▁재	11105
▁måste	11106
▁PA	11107
ሎ	11108
▁ती	11109
▁सो	11110
▁beim	11111
▁tomu	11112
▁mira	11113
ծ	11114
▁يوم	11115
▁ඇ	11116
ੀਆਂ	11117
▁ვ	11118
ロ	11119
▁mensen	11120
島	11121
▁tăng	11122
▁сарын	11123
assa	11124
▁воз	11125
eiro	11126
▁περι	11127
იდან	11128
▁sociale	11129
في	11130
▁بدون	11131
▁सेवा	11132
▁жер	11133
▁زیادہ	11134
▁moins	11135
ант	11136
gno	11137
▁ಪ್ರ	11138
▁שב	11139
控制	11140
НО	11141
占	11142
▁doma	11143
პ	11144
上海	11145
▁monde	11146
त्	11147
રા	11148
▁natur	11149
lev	11150
▁Inn	11151
余	11152
аж	11153
▁liệu	11154
▁Deus	11155
▁59	11156
▁neue	11157
间	11158
uko	11159
▁yfir	11160
▁hoàn	11161
▁SMS	11162
ยา	11163
▁하	11164
มัน	11165
▁痞客邦	11166
▁pal	11167
▁nekaj	11168
ခံ	11169
▁tulee	11170
ాల	11171
▁करते	11172
博	11173
▁ولی	11174
▁කිරීම	11175
UL	11176
▁fit	11177
▁lời	11178
rdi	11179
▁yi	11180
▁vô	11181
▁São	11182
▁MU	11183
ું	11184
эр	11185
లే	11186
▁etmək	11187
ського	11188
存	11189
▁saab	11190
ಕೆ	11191
▁high	11192
Ho	11193
▁يكون	11194
▁ملی	11195
十	11196
selt	11197
čne	11198
행	11199
ရင္	11200
▁չ	11201
ଟ	11202
fon	11203
▁Mei	11204
▁Not	11205
▁Mga	11206
▁この	11207
점	11208
▁presta	11209
cca	11210
▁הי	11211
▁gener	11212
▁Fan	11213
▁Medi	11214
▁visa	11215
▁Αν	11216
WA	11217
ଲି	11218
▁dati	11219
ldi	11220
▁شخص	11221
kata	11222
angan	11223
ția	11224
▁soos	11225
eer	11226
▁geri	11227
rî	11228
▁eins	11229
kara	11230
ками	11231
気	11232
关系	11233
koa	11234
çı	11235
ဟာ	11236
kem	11237
茶	11238
▁함께	11239
ନି	11240
dala	11241
рэ	11242
εις	11243
▁brez	11244
දි	11245
▁Ye	11246
▁पार्टी	11247
▁outras	11248
▁How	11249
առ	11250
▁66	11251
ราคา	11252
望	11253
▁dupa	11254
рам	11255
▁دهد	11256
▁hyn	11257
omis	11258
▁toujours	11259
▁chuyện	11260
τος	11261
adda	11262
kry	11263
エ	11264
▁איר	11265
▁zbog	11266
4%	11267
သြား	11268
▁eks	11269
▁위해	11270
▁бес	11271
▁pracy	11272
▁mogu	11273
ां	11274
▁овој	11275
▁bû	11276
گر	11277
▁នឹង	11278
łem	11279
▁male	11280
▁werd	11281
▁nunc	11282
ција	11283
▁тех	11284
▁именно	11285
▁توسط	11286
▁ନ	11287
▁đơn	11288
하지	11289
▁byť	11290
ঁ	11291
▁ME	11292
Η	11293
жы	11294
▁posible	11295
මි	11296
▁lah	11297
底	11298
▁hava	11299
മാ	11300
▁play	11301
▁Có	11302
▁آزاد	11303
nimi	11304
!!!!	11305
▁persone	11306
ቁ	11307
▁พ	11308
ća	11309
▁таксама	11310
▁realizar	11311
ству	11312
ización	11313
▁motiv	11314
jad	11315
▁sebab	11316
▁kecil	11317
ლო	11318
лаа	11319
▁ժամանակ	11320
▁AB	11321
kup	11322
మైన	11323
▁worm	11324
Про	11325
▁Ú	11326
ості	11327
▁Autor	11328
▁robot	11329
▁Tour	11330
▁Ну	11331
▁nội	11332
▁قابل	11333
تم	11334
▁Dil	11335
▁aiz	11336
spel	11337
▁ID	11338
▁bang	11339
按	11340
▁state	11341
ėjo	11342
▁always	11343
▁blogg	11344
▁Best	11345
▁altri	11346
▁थिए	11347
▁fick	11348
▁რაც	11349
rata	11350
unu	11351
▁luar	11352
▁кур	11353
may	11354
куп	11355
▁Play	11356
▁път	11357
▁پا	11358
转	11359
мин	11360
▁teraz	11361
▁nepa	11362
zim	11363
ær	11364
▁keer	11365
红	11366
ಿದ್ದಾರೆ	11367
mpi	11368
три	11369
▁denna	11370
▁จาก	11371
相关	11372
▁мир	11373
▁services	11374
レ	11375
▁जब	11376
▁passer	11377
洗	11378
inti	11379
▁sk	11380
ដ	11381
沒	11382
均	11383
Ç	11384
▁두	11385
▁والا	11386
cka	11387
AI	11388
▁version	11389
▁qilish	11390
更加	11391
▁५	11392
▁Ι	11393
理解	11394
kha	11395
▁صدر	11396
▁kuu	11397
▁apenas	11398
▁Team	11399
hit	11400
eksi	11401
▁бизнес	11402
рат	11403
эг	11404
▁stress	11405
▁lider	11406
ไว้	11407
▁automat	11408
ус	11409
记者	11410
ър	11411
sho	11412
kli	11413
▁paljon	11414
见	11415
hara	11416
▁typ	11417
▁kum	11418
ildi	11419
▁ра	11420
ថា	11421
▁yw	11422
▁önemli	11423
ებული	11424
วัน	11425
▁mikro	11426
▁Comments	11427
▁شدن	11428
عت	11429
аа	11430
raf	11431
▁inom	11432
▁وزارت	11433
ડી	11434
▁file	11435
2010	11436
▁hắn	11437
▁(9)	11438
kken	11439
aza	11440
klad	11441
▁رنگ	11442
fur	11443
▁själv	11444
▁igjen	11445
ред	11446
пра	11447
ಲ್ಲಿ	11448
மி	11449
▁dh	11450
成為	11451
той	11452
▁Här	11453
▁بازار	11454
▁بالا	11455
▁itt	11456
ाइ	11457
eerd	11458
▁nawet	11459
▁кредит	11460
iku	11461
▁sui	11462
▁sekarang	11463
▁గ	11464
كە	11465
▁istifadə	11466
▁يو	11467
dil	11468
▁port	11469
▁거	11470
ก่อน	11471
▁đất	11472
▁sale	11473
▁milyon	11474
▁tử	11475
▁fire	11476
Μ	11477
▁jää	11478
ư	11479
歌	11480
▁sách	11481
▁Պ	11482
കൾ	11483
▁የመ	11484
год	11485
▁ور	11486
HA	11487
kari	11488
▁pasti	11489
gol	11490
▁camp	11491
▁אויף	11492
▁ibu	11493
▁tento	11494
▁nez	11495
▁ary	11496
▁où	11497
▁amor	11498
дай	11499
▁administra	11500
▁хто	11501
▁वे	11502
ique	11503
▁blive	11504
аць	11505
▁libre	11506
▁MO	11507
▁lin	11508
imą	11509
සි	11510
遠	11511
▁මගේ	11512
▁rei	11513
зы	11514
▁जीवन	11515
▁(5	11516
▁esi	11517
▁világ	11518
ации	11519
▁ស	11520
▁ph	11521
▁better	11522
վի	11523
पि	11524
Ú	11525
▁थे	11526
▁మరియు	11527
▁بسیار	11528
워	11529
▁fordi	11530
▁song	11531
aste	11532
ament	11533
іп	11534
وف	11535
ሻ	11536
投	11537
▁faz	11538
游戏	11539
61	11540
學生	11541
▁podľa	11542
▁siitä	11543
▁trabajo	11544
▁viết	11545
ují	11546
udo	11547
43	11548
vert	11549
▁meses	11550
▁тільки	11551
▁zł	11552
▁lòng	11553
▁Col	11554
▁Daniel	11555
מו	11556
σαν	11557
یه	11558
ाची	11559
正在	11560
▁کچھ	11561
නා	11562
▁saman	11563
터	11564
-4	11565
▁այլ	11566
qe	11567
ੈ	11568
сно	11569
爾	11570
ଶ	11571
EN	11572
▁연	11573
▁واحد	11574
▁mendapatkan	11575
▁Ano	11576
▁بها	11577
计划	11578
ικές	11579
▁Україні	11580
▁роботи	11581
▁امریکا	11582
/1	11583
▁Pop	11584
▁24.	11585
யாக	11586
3%	11587
▁Center	11588
вала	11589
▁deyil	11590
93	11591
ăm	11592
でした	11593
▁አይ	11594
ení	11595
್ಯ	11596
asan	11597
▁hab	11598
留	11599
ధ	11600
虽然	11601
▁بو	11602
аас	11603
▁kemudian	11604
▁veľmi	11605
dora	11606
▁ildə	11607
权	11608
▁ٹی	11609
▁nombre	11610
美國	11611
ðu	11612
ებით	11613
▁Ing	11614
副	11615
ળ	11616
▁Michael	11617
გა	11618
▁장	11619
шки	11620
ಮ್	11621
টা	11622
▁Sel	11623
▁wêreld	11624
▁mba	11625
▁etiam	11626
name	11627
▁baina	11628
kā	11629
▁Го	11630
aq	11631
şe	11632
eel	11633
▁menye	11634
िया	11635
ppu	11636
比较	11637
親	11638
दार	11639
嗎	11640
ី	11641
णे	11642
▁ket	11643
ચ	11644
▁हुआ	11645
मान	11646
▁Ə	11647
96	11648
▁વિ	11649
nă	11650
▁individual	11651
▁lí	11652
▁25.	11653
ņ	11654
피	11655
▁damer	11656
某	11657
たい	11658
跑	11659
ری	11660
ιν	11661
▁cen	11662
55	11663
ໃຫ້	11664
▁tərəfindən	11665
▁HA	11666
▁бу	11667
▁acu	11668
九	11669
Je	11670
iyê	11671
రీ	11672
▁dalka	11673
▁சி	11674
▁run	11675
cé	11676
▁ký	11677
▁Reg	11678
GE	11679
cus	11680
लं	11681
▁jälkeen	11682
ลูก	11683
usa	11684
teur	11685
有些	11686
▁მათ	11687
▁жылы	11688
▁ú	11689
▁بارے	11690
▁september	11691
▁वह	11692
лай	11693
▁هایی	11694
ää	11695
別	11696
wen	11697
▁centre	11698
ค่ะ	11699
▁الص	11700
tır	11701
▁ઉ	11702
51	11703
▁1990	11704
苦	11705
జ	11706
▁innan	11707
視	11708
▁пол	11709
ୋ	11710
μη	11711
▁پیدا	11712
ാല്	11713
mista	11714
▁pasado	11715
▁61	11716
ปี	11717
▁የአ	11718
വര്	11719
▁programma	11720
▁pouco	11721
▁neque	11722
mez	11723
▁Design	11724
▁стандарт	11725
▁fase	11726
ph	11727
box	11728
▁taj	11729
▁Gel	11730
дык	11731
▁mio	11732
▁sagt	11733
▁نواز	11734
сты	11735
▁sat	11736
▁next	11737
ുന്നത്	11738
▁Prof	11739
ós	11740
▁deste	11741
▁võib	11742
▁alap	11743
▁ଏ	11744
▁biệt	11745
▁þú	11746
즈	11747
自分の	11748
▁Denne	11749
▁agora	11750
▁Vin	11751
gum	11752
▁서	11753
員	11754
交易	11755
▁Us	11756
▁cop	11757
천	11758
▁ಅವರು	11759
▁Ná	11760
▁doktor	11761
▁£	11762
列	11763
▁constitu	11764
▁faoi	11765
RE	11766
▁yok	11767
▁fokus	11768
▁тях	11769
▁Sk	11770
รา	11771
வும்	11772
می	11773
ић	11774
▁penting	11775
lada	11776
▁130	11777
▁շատ	11778
▁kõik	11779
rú	11780
▁зв	11781
▁call	11782
erer	11783
▁ceva	11784
▁এর	11785
▁ປະ	11786
▁OS	11787
▁ስለ	11788
▁Uni	11789
拿	11790
ಲೆ	11791
ನಾ	11792
ରି	11793
▁беру	11794
买	11795
▁alleen	11796
▁Ти	11797
šo	11798
neet	11799
▁địa	11800
▁उनले	11801
热	11802
▁był	11803
のか	11804
ിലെ	11805
ที่จะ	11806
ള്	11807
Í	11808
▁Data	11809
іне	11810
▁लेख	11811
倒	11812
ује	11813
▁used	11814
dami	11815
▁kla	11816
▁잘	11817
机构	11818
▁đ	11819
▁nhập	11820
bg	11821
▁quelques	11822
ନ୍	11823
▁trẻ	11824
буд	11825
▁några	11826
▁став	11827
▁тухай	11828
ନା	11829
று	11830
▁teu	11831
sum	11832
这一	11833
▁ቤት	11834
76	11835
ovej	11836
▁kendi	11837
▁ඔබ	11838
VI	11839
▁vaan	11840
▁KO	11841
გი	11842
ји	11843
ኔ	11844
▁às	11845
ओं	11846
▁thứ	11847
ине	11848
▁тя	11849
▁خدمات	11850
נת	11851
▁Kai	11852
▁Here	11853
▁hra	11854
JA	11855
press	11856
▁1995	11857
▁ولكن	11858
sama	11859
▁bai	11860
há	11861
▁forhold	11862
▁nostri	11863
лас	11864
▁essa	11865
Da	11866
▁მას	11867
нат	11868
Π	11869
pé	11870
语	11871
▁Hur	11872
▁성	11873
▁കാ	11874
▁средства	11875
▁bul	11876
▁huu	11877
чно	11878
▁sada	11879
▁vừa	11880
ява	11881
▁След	11882
ema	11883
▁നല്	11884
▁తో	11885
▁لی	11886
owane	11887
界	11888
జ్	11889
▁गर्दै	11890
▁1996	11891
тел	11892
UM	11893
hra	11894
▁दिवस	11895
iel	11896
▁desta	11897
lung	11898
њи	11899
▁pří	11900
čky	11901
pag	11902
▁meter	11903
▁گے	11904
▁podem	11905
eira	11906
▁every	11907
▁kura	11908
AR	11909
yada	11910
bru	11911
σα	11912
▁prae	11913
▁portal	11914
mbang	11915
▁weet	11916
رت	11917
▁nunca	11918
toa	11919
யும்	11920
我国	11921
▁эти	11922
▁телефон	11923
▁مش	11924
▁selalu	11925
▁कु	11926
▁isto	11927
▁siempre	11928
ოთ	11929
▁Како	11930
계	11931
▁malam	11932
情况	11933
救	11934
Con	11935
▁ym	11936
▁69	11937
▁club	11938
衣	11939
▁പറഞ്ഞു	11940
duk	11941
ေပး	11942
žo	11943
▁fal	11944
▁السلام	11945
spor	11946
یان	11947
▁micro	11948
▁ہوا	11949
rok	11950
uro	11951
▁ö	11952
▁pasa	11953
▁Love	11954
spo	11955
utu	11956
群	11957
▁bed	11958
ጉ	11959
cken	11960
▁сто	11961
ဒ	11962
支	11963
ტ	11964
▁ਪ	11965
▁forte	11966
▁بنا	11967
▁э	11968
▁gro	11969
▁nett	11970
lse	11971
▁nelle	11972
注意	11973
▁зам	11974
▁gjør	11975
难	11976
▁թ	11977
▁пи	11978
ага	11979
▁namun	11980
ости	11981
▁tegen	11982
▁ثبت	11983
ক্ষ	11984
mək	11985
▁Posted	11986
▁آخر	11987
▁ಎ	11988
▁Най	11989
▁राज	11990
8%	11991
▁jour	11992
ட்டு	11993
▁March	11994
▁Bij	11995
▁ktorá	11996
▁Dövlət	11997
▁Gy	11998
isse	11999
▁qədər	12000
▁یاد	12001
段	12002
má	12003
▁خرید	12004
▁गई	12005
▁sens	12006
▁stan	12007
▁share	12008
மான	12009
▁mg	12010
▁الح	12011
82	12012
MO	12013
rta	12014
▁Ros	12015
▁директор	12016
這些	12017
mand	12018
бі	12019
▁בכל	12020
▁Mes	12021
关于	12022
▁בי	12023
▁pasar	12024
经	12025
師	12026
στ	12027
▁य	12028
▁آج	12029
▁جدا	12030
ेन	12031
ਾਈ	12032
nosť	12033
▁bahan	12034
▁Gor	12035
▁avoir	12036
▁حد	12037
▁olması	12038
▁xəbər	12039
限	12040
▁הח	12041
▁कांग्रेस	12042
▁datang	12043
▁Ia	12044
▁68	12045
डा	12046
▁SP	12047
ANA	12048
▁пример	12049
▁bog	12050
ມີ	12051
▁Uhr	12052
▁сви	12053
▁خوش	12054
රු	12055
rica	12056
파	12057
▁эрх	12058
▁sot	12059
nger	12060
▁ਮ	12061
▁110	12062
▁kogu	12063
sco	12064
▁הו	12065
▁본	12066
▁სხვა	12067
ас	12068
▁63	12069
നം	12070
ddi	12071
▁gjitha	12072
▁مطالب	12073
gov	12074
ték	12075
▁Бұл	12076
ပေး	12077
Atom	12078
のです	12079
▁Eine	12080
について	12081
怎么	12082
cza	12083
▁futuro	12084
▁bolo	12085
టీ	12086
っている	12087
ності	12088
▁छैन	12089
жу	12090
దు	12091
提出	12092
条件	12093
▁ajo	12094
▁எ	12095
▁sort	12096
lly	12097
ћи	12098
ିତ	12099
▁käsi	12100
вай	12101
şa	12102
lē	12103
ယ	12104
▁исто	12105
▁‫	12106
▁sáng	12107
▁mina	12108
มือ	12109
Ko	12110
ží	12111
▁benar	12112
മ്പ	12113
不断	12114
ា	12115
olla	12116
▁primi	12117
kite	12118
▁hoy	12119
▁prostor	12120
lk	12121
新的	12122
átor	12123
▁هزار	12124
▁फिल्म	12125
ball	12126
пу	12127
▁били	12128
▁ले	12129
נים	12130
ዉ	12131
tza	12132
▁Office	12133
اه	12134
▁tham	12135
▁kirja	12136
We	12137
▁tio	12138
▁tetap	12139
▁món	12140
នៅ	12141
ണ്	12142
▁ней	12143
們	12144
ந்து	12145
▁individu	12146
/5	12147
ೂ	12148
важ	12149
nico	12150
vý	12151
கு	12152
ларды	12153
▁Deutschland	12154
▁اطلاعات	12155
▁kedua	12156
نده	12157
▁tổ	12158
wyd	12159
▁böyük	12160
のが	12161
▁hyvin	12162
▁Rio	12163
▁дом	12164
ေလး	12165
▁qarşı	12166
iadau	12167
遊戲	12168
为了	12169
▁baza	12170
ovo	12171
▁असे	12172
▁করতে	12173
▁RM	12174
ilu	12175
fre	12176
nach	12177
vus	12178
▁එම	12179
▁ഞാന്	12180
վ	12181
▁KE	12182
91	12183
▁विचार	12184
▁информация	12185
▁thích	12186
6%	12187
▁memberi	12188
▁खेल	12189
▁Saint	12190
▁eden	12191
▁اخبار	12192
▁عبد	12193
▁മാ	12194
有限公司	12195
gri	12196
▁слова	12197
▁presenta	12198
▁Əliyev	12199
▁οποία	12200
ยัง	12201
кам	12202
▁nh	12203
лик	12204
ခြင်း	12205
▁факт	12206
idos	12207
▁karo	12208
▁uga	12209
▁води	12210
▁PP	12211
▁இது	12212
шу	12213
▁हुन्छ	12214
▁hyvä	12215
tten	12216
ాయి	12217
資料	12218
います	12219
▁EUR	12220
:15	12221
yen	12222
یی	12223
▁Ska	12224
ked	12225
▁બે	12226
▁lille	12227
feira	12228
ার	12229
mah	12230
92	12231
▁TH	12232
PC	12233
▁problemas	12234
影	12235
PA	12236
▁بس	12237
▁jedna	12238
雷	12239
▁chế	12240
▁Jahre	12241
▁hotell	12242
57	12243
▁بزرگ	12244
七	12245
税	12246
▁yng	12247
Ra	12248
▁gay	12249
模式	12250
▁പാ	12251
ији	12252
디	12253
▁egiten	12254
▁zou	12255
演	12256
▁estado	12257
업	12258
ric	12259
▁હ	12260
ጅ	12261
▁फिर	12262
▁നി	12263
▁Pin	12264
▁fotos	12265
▁plu	12266
ല്ല	12267
▁انتخاب	12268
▁ինչ	12269
сті	12270
yr	12271
实	12272
ሙ	12273
രു	12274
▁studio	12275
ера	12276
▁ish	12277
▁לפני	12278
▁kart	12279
RA	12280
▁доста	12281
igu	12282
bad	12283
포	12284
變	12285
종	12286
▁උ	12287
▁رہا	12288
ნის	12289
▁Ай	12290
ësh	12291
▁nimi	12292
戰	12293
▁osób	12294
▁parece	12295
▁rit	12296
▁þegar	12297
▁Tags	12298
פת	12299
▁બ	12300
▁read	12301
▁transfer	12302
mun	12303
▁دارند	12304
▁kjo	12305
അ	12306
tú	12307
ో	12308
ரை	12309
▁آل	12310
▁وقد	12311
▁suatu	12312
dah	12313
▁dobre	12314
град	12315
▁unserer	12316
▁လူ	12317
ях	12318
▁feel	12319
▁років	12320
▁Main	12321
건	12322
رس	12323
試	12324
▁тако	12325
اش	12326
եւ	12327
lun	12328
ол	12329
▁significa	12330
ക്കു	12331
▁цел	12332
media	12333
▁sektor	12334
發現	12335
hand	12336
بي	12337
54	12338
▁Mobil	12339
▁eh	12340
▁bolj	12341
▁Ag	12342
▁galego	12343
vai	12344
질	12345
▁Ελλάδα	12346
▁эл	12347
▁talent	12348
▁Service	12349
▁구	12350
AD	12351
▁DVD	12352
▁System	12353
ሊ	12354
ација	12355
lju	12356
yên	12357
▁бюджет	12358
▁உ	12359
▁도	12360
liśmy	12361
▁세	12362
▁نقل	12363
tila	12364
lei	12365
jel	12366
▁veliko	12367
▁મા	12368
▁dunha	12369
由于	12370
نت	12371
ड़	12372
Ž	12373
▁പുതിയ	12374
▁спо	12375
▁Grund	12376
▁bha	12377
कै	12378
尼	12379
rī	12380
▁meine	12381
▁Что	12382
▁Estado	12383
▁prvi	12384
▁sino	12385
▁Кон	12386
▁ನಲ್ಲಿ	12387
▁Namun	12388
▁Welt	12389
так	12390
ள	12391
痛	12392
oro	12393
▁लोक	12394
▁yana	12395
ნე	12396
mil	12397
▁vite	12398
...)	12399
▁thêm	12400
▁font	12401
▁jotka	12402
▁fly	12403
▁quasi	12404
▁publik	12405
sza	12406
▁என்ற	12407
館	12408
dad	12409
▁hasil	12410
티	12411
타	12412
▁հ	12413
ขาย	12414
רי	12415
▁ಹ	12416
▁10-	12417
其实	12418
oedd	12419
▁آموزش	12420
eth	12421
自由	12422
▁ڪ	12423
65	12424
▁направи	12425
▁Ort	12426
၀	12427
▁गए	12428
▁Ө	12429
▁hum	12430
크	12431
▁बारे	12432
▁tarif	12433
▁пен	12434
ơ	12435
▁gyfer	12436
▁αντι	12437
▁Και	12438
▁Berg	12439
▁laikā	12440
▁led	12441
根	12442
лах	12443
igt	12444
menti	12445
▁አስ	12446
▁job	12447
მი	12448
▁waxay	12449
造成	12450
운	12451
▁Robert	12452
▁2012.	12453
保持	12454
pia	12455
▁Kurdistanê	12456
▁vissza	12457
ندي	12458
▁После	12459
▁Lai	12460
退	12461
▁eich	12462
ಟಿ	12463
▁။	12464
44	12465
▁ඒක	12466
లకు	12467
িত	12468
▁пут	12469
mena	12470
▁passar	12471
lid	12472
想要	12473
▁Ş	12474
drag	12475
던	12476
/2	12477
▁fre	12478
▁assim	12479
▁такой	12480
▁Të	12481
▁око	12482
ען	12483
▁není	12484
ño	12485
▁ਉਹ	12486
ndu	12487
▁nor	12488
▁вода	12489
▁26.	12490
்	12491
ంలో	12492
▁තමයි	12493
▁быў	12494
▁phí	12495
ിക്ക	12496
δο	12497
▁27.	12498
पुर	12499
▁හෝ	12500
ER	12501
▁Tek	12502
▁විය	12503
▁сейчас	12504
▁эмес	12505
▁Bas	12506
▁Vý	12507
▁vit	12508
▁होने	12509
建立	12510
▁28.	12511
lichen	12512
不会	12513
角	12514
ேன்	12515
▁लि	12516
වේ	12517
▁nærheten	12518
ského	12519
ಿದ್ದ	12520
tava	12521
hui	12522
ської	12523
ologi	12524
命	12525
▁tým	12526
łu	12527
ቶች	12528
nto	12529
▁Pal	12530
▁բոլոր	12531
▁tidligere	12532
▁भर	12533
ବି	12534
▁University	12535
lyn	12536
▁więcej	12537
▁بوده	12538
▁edən	12539
▁rat	12540
▁ute	12541
పు	12542
▁ବ	12543
стер	12544
ຄວາມ	12545
▁compte	12546
でしょう	12547
ശ	12548
eme	12549
景	12550
ssi	12551
▁lập	12552
ський	12553
کا	12554
未来	12555
▁вони	12556
▁सकते	12557
kı	12558
ണ്ട	12559
▁ሰ	12560
▁мо	12561
▁bre	12562
▁Ry	12563
▁fl	12564
草	12565
▁Est	12566
čas	12567
根据	12568
▁kemi	12569
▁sous	12570
▁urte	12571
▁العالم	12572
ມາ	12573
▁Danmark	12574
▁২০১৮	12575
▁Mah	12576
▁Blogger	12577
▁жил	12578
▁पूर्व	12579
ावर	12580
▁عدد	12581
្	12582
▁þetta	12583
▁أكثر	12584
▁zelf	12585
政治	12586
▁bhí	12587
▁точно	12588
لة	12589
春	12590
tav	12591
ਦੇ	12592
▁прес	12593
ေတာ္	12594
úr	12595
λε	12596
zor	12597
▁تھے	12598
▁هیچ	12599
cou	12600
▁prefer	12601
▁olaraq	12602
பி	12603
▁vend	12604
ჭ	12605
▁въз	12606
osi	12607
▁bland	12608
ിന്	12609
▁Roman	12610
ሃ	12611
▁Dans	12612
▁Thu	12613
事件	12614
一年	12615
改革	12616
指出	12617
ਵ	12618
▁글	12619
back	12620
▁щодо	12621
正式	12622
Δ	12623
▁모든	12624
ał	12625
вед	12626
▁ավելի	12627
▁Bel	12628
▁سبب	12629
bou	12630
lot	12631
ió	12632
▁között	12633
▁ofte	12634
ский	12635
kään	12636
த்தி	12637
▁each	12638
▁YouTube	12639
ché	12640
▁sức	12641
teko	12642
larla	12643
टा	12644
cit	12645
lú	12646
Bo	12647
vam	12648
ades	12649
▁വ	12650
ein	12651
▁ještě	12652
lep	12653
syn	12654
kant	12655
▁mellom	12656
яс	12657
帮助	12658
sos	12659
▁keluar	12660
▁67	12661
Man	12662
▁genera	12663
▁140	12664
uch	12665
לו	12666
idan	12667
令	12668
▁sv	12669
▁být	12670
▁سیاسی	12671
▁член	12672
▁ಬಗ್ಗೆ	12673
вање	12674
▁tutte	12675
▁Fall	12676
▁lelaki	12677
9%	12678
အား	12679
▁kok	12680
ഡ	12681
▁Δεν	12682
uju	12683
▁log	12684
▁چيو	12685
दी	12686
▁ඔහු	12687
बी	12688
MB	12689
▁trabalho	12690
▁Για	12691
▁گئے	12692
▁کوي	12693
▁qa	12694
स्त	12695
▁ဒီ	12696
یو	12697
▁см	12698
ജി	12699
అ	12700
▁Ele	12701
装	12702
▁которых	12703
▁ہوں	12704
▁العمل	12705
dob	12706
ไม่ได้	12707
esh	12708
ικής	12709
▁unu	12710
▁rund	12711
iy	12712
rri	12713
სი	12714
tara	12715
▁zelo	12716
▁Auch	12717
▁sätt	12718
▁20%	12719
bok	12720
بی	12721
rol	12722
▁quand	12723
Ro	12724
必	12725
urilor	12726
社會	12727
▁bästa	12728
stin	12729
uoja	12730
рах	12731
▁içinde	12732
čio	12733
bah	12734
▁quia	12735
တွင်	12736
▁پھر	12737
▁کرنا	12738
сен	12739
ције	12740
ines	12741
裡	12742
zó	12743
52	12744
▁Bad	12745
sme	12746
▁власти	12747
інде	12748
sə	12749
▁nodig	12750
▁கா	12751
端	12752
▁termasuk	12753
▁zor	12754
▁توان	12755
▁sở	12756
йн	12757
станов	12758
uja	12759
▁४	12760
тур	12761
uto	12762
TS	12763
레	12764
▁check	12765
的に	12766
罗	12767
▁trend	12768
▁Ди	12769
▁γ	12770
čni	12771
88	12772
رات	12773
▁sakit	12774
바	12775
út	12776
▁ве	12777
▁România	12778
▁Link	12779
ря	12780
zwa	12781
▁tamin	12782
▁Kultur	12783
ய்	12784
▁ken	12785
▁Она	12786
ishi	12787
발	12788
▁mann	12789
别	12790
▁Nga	12791
▁ໃຫ້	12792
▁sendo	12793
rais	12794
▁pont	12795
▁будзе	12796
▁बार	12797
连	12798
lerine	12799
ові	12800
▁Grand	12801
運	12802
istas	12803
▁norge	12804
▁දී	12805
anto	12806
2%	12807
▁입	12808
ität	12809
▁болады	12810
lise	12811
역	12812
▁सबै	12813
ছে	12814
larga	12815
ņu	12816
კვ	12817
▁Trong	12818
シ	12819
▁किसी	12820
造	12821
▁otros	12822
민	12823
urs	12824
72	12825
▁несколько	12826
nyt	12827
mien	12828
▁वाले	12829
▁element	12830
ြ	12831
sent	12832
数据	12833
ಟ	12834
▁vật	12835
ੜ	12836
▁kulit	12837
▁niż	12838
▁1992	12839
▁homo	12840
▁kamp	12841
င်	12842
極	12843
ір	12844
▁plej	12845
mbra	12846
▁toutes	12847
ข้อมูล	12848
▁још	12849
▁Беларусь	12850
ιών	12851
ικών	12852
▁rom	12853
▁Хо	12854
▁penyakit	12855
▁μέσα	12856
▁ਕੀਤਾ	12857
ことを	12858
legt	12859
▁сайта	12860
以前	12861
hay	12862
▁membantu	12863
▁защото	12864
▁xo	12865
▁tradi	12866
▁corpo	12867
▁всегда	12868
▁दुई	12869
ttä	12870
เมือง	12871
▁گروه	12872
▁යන	12873
ης	12874
▁vrijeme	12875
▁Nor	12876
▁book	12877
▁baba	12878
▁fil	12879
وان	12880
▁पु	12881
▁derfor	12882
él	12883
▁رسول	12884
▁saada	12885
▁შესახებ	12886
વી	12887
شان	12888
▁ενώ	12889
בי	12890
දී	12891
されている	12892
▁makanan	12893
uru	12894
ácia	12895
ču	12896
liste	12897
▁1991	12898
▁czas	12899
weg	12900
▁våra	12901
▁الق	12902
σι	12903
必要	12904
▁Raz	12905
都有	12906
▁भन्ने	12907
▁mẹ	12908
vej	12909
эл	12910
▁Telugu	12911
▁front	12912
ცი	12913
个人	12914
sir	12915
▁ను	12916
kap	12917
▁MB	12918
ять	12919
▁vastu	12920
▁different	12921
▁ទី	12922
▁प्रमुख	12923
▁metal	12924
▁еден	12925
▁sasa	12926
SH	12927
▁வ	12928
တယ္	12929
▁sondern	12930
त्य	12931
larından	12932
လို႔	12933
▁лише	12934
▁ਆ	12935
▁ant	12936
▁document	12937
▁నుంచి	12938
▁gjennom	12939
▁Nel	12940
▁گل	12941
▁När	12942
▁දැන්	12943
▁AC	12944
▁স	12945
▁όμως	12946
▁عمران	12947
sana	12948
▁நான்	12949
▁sarà	12950
85	12951
▁neki	12952
▁siz	12953
▁کنیم	12954
▁Baş	12955
▁tut	12956
вр	12957
▁ਗਿਆ	12958
дук	12959
▁while	12960
▁sollte	12961
ické	12962
оч	12963
gis	12964
地区	12965
▁klas	12966
▁hali	12967
گان	12968
▁Mir	12969
üü	12970
AK	12971
etako	12972
▁сөз	12973
▁१०	12974
59	12975
ạ	12976
49	12977
▁pagina	12978
ბ	12979
▁ପରେ	12980
▁Bol	12981
▁Mont	12982
▁monitor	12983
כן	12984
▁نوع	12985
blo	12986
▁ឲ្យ	12987
/10	12988
▁order	12989
raš	12990
▁bình	12991
▁Kita	12992
▁ને	12993
izi	12994
eniu	12995
▁product	12996
▁नयाँ	12997
▁TA	12998
問	12999
▁Ph	13000
nike	13001
tään	13002
cil	13003
▁pov	13004
ข	13005
▁begitu	13006
▁6-	13007
▁Br	13008
▁통해	13009
ಲ್ಲ	13010
▁broj	13011
东	13012
▁Euskal	13013
▁echt	13014
▁Hon	13015
▁गरिएको	13016
udu	13017
▁TE	13018
▁wali	13019
▁گی	13020
ões	13021
▁президент	13022
42	13023
▁අය	13024
He	13025
ນີ້	13026
原因	13027
▁ran	13028
▁الج	13029
▁Yeni	13030
▁sydd	13031
عد	13032
êm	13033
fla	13034
▁пет	13035
▁major	13036
anza	13037
▁House	13038
▁Concello	13039
▁év	13040
णी	13041
▁qué	13042
▁Jam	13043
ვის	13044
▁estão	13045
业务	13046
▁sci	13047
vous	13048
jung	13049
現	13050
▁кал	13051
员	13052
▁документ	13053
áil	13054
SO	13055
ल्	13056
▁mera	13057
ут	13058
▁qəbul	13059
כת	13060
▁فيها	13061
eń	13062
▁velit	13063
最近	13064
▁улсын	13065
тық	13066
▁esti	13067
카	13068
▁været	13069
பா	13070
չ	13071
▁Ак	13072
▁बात	13073
▁doğru	13074
ዛ	13075
▁nove	13076
ঃ	13077
ಧ	13078
けど	13079
党	13080
▁cro	13081
整	13082
▁تور	13083
▁datos	13084
▁lado	13085
▁काय	13086
▁داشت	13087
▁ove	13088
kti	13089
費	13090
ム	13091
▁호텔	13092
雪	13093
▁libero	13094
ované	13095
adu	13096
▁sito	13097
▁अधिक	13098
▁binnen	13099
▁પ	13100
άν	13101
▁juba	13102
▁raport	13103
▁december	13104
zes	13105
▁depuis	13106
hli	13107
▁jenis	13108
▁hỏi	13109
атор	13110
▁dol	13111
itä	13112
မိ	13113
▁ביותר	13114
감	13115
nke	13116
▁компании	13117
▁تھا۔	13118
клад	13119
▁numero	13120
jus	13121
tiv	13122
▁Вас	13123
▁esto	13124
▁varit	13125
ките	13126
▁එය	13127
▁மற்றும்	13128
▁我	13129
▁nuestro	13130
▁buna	13131
▁ešte	13132
CA	13133
লি	13134
вя	13135
šana	13136
▁struktur	13137
沙	13138
rni	13139
uð	13140
▁ваш	13141
شت	13142
▁phụ	13143
وال	13144
▁डा	13145
▁Log	13146
▁metus	13147
▁mok	13148
▁ერთი	13149
ovala	13150
rako	13151
▁finne	13152
▁ଏବଂ	13153
▁bereits	13154
هه	13155
▁Sara	13156
▁mampu	13157
plo	13158
עס	13159
操作	13160
▁köz	13161
▁spot	13162
▁kost	13163
erat	13164
あ	13165
▁mulai	13166
出现	13167
▁pravi	13168
nl	13169
тери	13170
▁হয়েছে	13171
ပဲ	13172
▁moderne	13173
▁fiecare	13174
гр	13175
▁cili	13176
▁Bro	13177
වට	13178
음	13179
▁pueden	13180
▁projektu	13181
节	13182
ään	13183
▁болно	13184
▁elő	13185
▁byla	13186
입	13187
▁عکس	13188
▁მის	13189
▁dib	13190
ення	13191
▁договор	13192
▁visu	13193
نس	13194
▁lassen	13195
що	13196
umo	13197
იან	13198
ሬ	13199
НИ	13200
vano	13201
tev	13202
▁Пред	13203
▁defini	13204
ає	13205
acht	13206
▁Sim	13207
▁biasa	13208
▁बा	13209
▁kru	13210
▁1994	13211
▁Mart	13212
場合	13213
मे	13214
ातील	13215
තා	13216
▁ĝi	13217
へ	13218
lerinin	13219
▁après	13220
▁कुरा	13221
▁elke	13222
DO	13223
▁novi	13224
тя	13225
那些	13226
យ	13227
▁gegen	13228
교	13229
յանը	13230
▁إذا	13231
▁شب	13232
atan	13233
നെ	13234
▁anders	13235
වන	13236
▁свои	13237
▁විසින්	13238
ása	13239
лася	13240
ซื้อ	13241
ikka	13242
ék	13243
中央	13244
▁bud	13245
▁chuyên	13246
▁ond	13247
iä	13248
▁ఆయన	13249
股	13250
υρ	13251
▁جمع	13252
▁ለማ	13253
▁stat	13254
daki	13255
اع	13256
ફ	13257
▁ní	13258
▁aldrig	13259
τες	13260
▁Porno	13261
▁የሚያ	13262
▁rakyat	13263
也有	13264
ელ	13265
▁atunci	13266
▁size	13267
▁meni	13268
▁num	13269
ため	13270
▁ред	13271
stup	13272
\\	13273
▁Maka	13274
▁سندس	13275
▁apar	13276
▁ዓ	13277
▁הג	13278
▁ایم	13279
▁usa	13280
▁Villa	13281
iske	13282
▁voir	13283
▁लेकिन	13284
▁mennesker	13285
▁müssen	13286
тся	13287
岁	13288
▁Pil	13289
▁यस	13290
▁dựng	13291
יי	13292
▁Model	13293
▁Sala	13294
▁centra	13295
如此	13296
ဦး	13297
▁እየ	13298
▁решение	13299
atori	13300
ရွိ	13301
▁mellan	13302
▁gw	13303
그	13304
eng	13305
gut	13306
64	13307
▁ضد	13308
▁കെ	13309
▁చాలా	13310
▁한다	13311
▁days	13312
十分	13313
Не	13314
▁line	13315
▁Fin	13316
▁iad	13317
▁beaucoup	13318
▁dont	13319
▁Tim	13320
▁stati	13321
▁Thai	13322
▁visto	13323
人民	13324
▁जाने	13325
一样	13326
ায়	13327
▁Jun	13328
▁ego	13329
47	13330
▁^	13331
▁ĉe	13332
toria	13333
不过	13334
▁ڪو	13335
▁აღ	13336
離	13337
云	13338
sını	13339
▁Տ	13340
▁aange	13341
צו	13342
▁outro	13343
ମା	13344
▁таких	13345
uose	13346
Đ	13347
lice	13348
▁дээр	13349
siga	13350
гон	13351
اك	13352
▁सबसे	13353
▁qeyd	13354
步	13355
▁Galaxy	13356
ሞ	13357
▁koos	13358
ciu	13359
▁paket	13360
▁’’	13361
▁khó	13362
▁bắt	13363
▁پہلے	13364
▁χρόνια	13365
▁ไม่	13366
▁కోసం	13367
水平	13368
katu	13369
ندو	13370
▁सी	13371
▁gusto	13372
▁idi	13373
▁fiind	13374
▁trung	13375
▁suur	13376
▁עוד	13377
گاه	13378
▁present	13379
▁pit	13380
רת	13381
▁barədə	13382
ξ	13383
dt	13384
▁информации	13385
-15	13386
▁Пе	13387
ue	13388
▁форма	13389
след	13390
▁автор	13391
ഗ	13392
▁která	13393
▁свой	13394
▁prova	13395
▁بت	13396
ರಾ	13397
▁сказал	13398
川	13399
cco	13400
▁жок	13401
สี	13402
cara	13403
▁dabei	13404
нка	13405
jom	13406
▁giao	13407
dni	13408
pass	13409
เขา	13410
▁mois	13411
နိုင်	13412
▁প	13413
▁preko	13414
mod	13415
▁report	13416
▁Ons	13417
иться	13418
ασ	13419
설	13420
▁pati	13421
▁ახალი	13422
▁povas	13423
▁daugiau	13424
▁kleine	13425
▁nơi	13426
ങ്ങ	13427
▁курс	13428
간	13429
▁आई	13430
網站	13431
ето	13432
▁після	13433
▁kyllä	13434
▁света	13435
tjes	13436
yor	13437
▁again	13438
MS	13439
▁uden	13440
▁الان	13441
▁160	13442
▁Centro	13443
rė	13444
▁ಆಗ	13445
▁sesuai	13446
夫	13447
fir	13448
том	13449
ome	13450
ッ	13451
▁project	13452
▁Global	13453
▁yli	13454
▁guru	13455
יש	13456
▁nogle	13457
בר	13458
▁hozzá	13459
بار	13460
▁haber	13461
▁என	13462
運動	13463
▁վրա	13464
5%	13465
▁staan	13466
ării	13467
▁Mini	13468
▁chuyển	13469
相關	13470
rb	13471
▁Ø	13472
kho	13473
alle	13474
ое	13475
▁جواب	13476
不過	13477
ρά	13478
▁dois	13479
stitu	13480
▁hev	13481
bed	13482
▁vide	13483
▁20-	13484
▁Wer	13485
▁ಬ	13486
▁kazi	13487
هن	13488
arak	13489
▁maha	13490
▁bok	13491
▁polis	13492
▁ჩვენ	13493
设备	13494
▁ember	13495
อาหาร	13496
נט	13497
▁Pos	13498
်	13499
rul	13500
▁1989	13501
▁وزير	13502
▁giáo	13503
কা	13504
▁oh	13505
例	13506
▁prieš	13507
iran	13508
▁бай	13509
рав	13510
អ	13511
▁เพื่อ	13512
Ө	13513
▁mengenai	13514
▁הס	13515
▁Wij	13516
▁الو	13517
ពី	13518
然后	13519
hre	13520
-17	13521
县	13522
ジ	13523
▁ис	13524
夏	13525
DS	13526
▁Open	13527
-16	13528
jó	13529
რის	13530
луу	13531
▁хора	13532
ખ	13533
ford	13534
घ	13535
▁yol	13536
▁fag	13537
▁Out	13538
ступ	13539
▁نورو	13540
▁наш	13541
▁bagian	13542
▁säger	13543
роз	13544
-6	13545
يس	13546
▁Game	13547
大學	13548
▁96	13549
▁δύο	13550
दि	13551
▁Sand	13552
цион	13553
ਨੀ	13554
▁сама	13555
81	13556
▁oktober	13557
Հ	13558
▁daug	13559
avimo	13560
▁είχε	13561
cov	13562
▁Saat	13563
▁강	13564
erek	13565
bles	13566
vre	13567
▁kong	13568
pes	13569
ກັບ	13570
▁BiH	13571
▁пу	13572
▁نشان	13573
73	13574
▁Ад	13575
fest	13576
▁altre	13577
▁Чи	13578
▁term	13579
▁thing	13580
dě	13581
ният	13582
▁luo	13583
▁slu	13584
еді	13585
▁nchi	13586
▁текст	13587
▁pagal	13588
дор	13589
ถูก	13590
ズ	13591
▁servis	13592
burg	13593
▁fik	13594
kil	13595
▁nhanh	13596
▁môže	13597
▁siku	13598
人生	13599
యం	13600
ส่ง	13601
ઝ	13602
▁mám	13603
jumu	13604
ıl	13605
odd	13606
▁egyik	13607
ੂ	13608
▁تھی	13609
▁Кар	13610
▁hilo	13611
不知道	13612
▁mener	13613
旅游	13614
ण्ड	13615
mene	13616
ения	13617
客户	13618
▁bent	13619
يف	13620
游	13621
▁bona	13622
ಶ	13623
▁клуб	13624
▁cri	13625
▁sotto	13626
▁completa	13627
▁род	13628
▁sti	13629
▁Ү	13630
rap	13631
▁білім	13632
▁همراه	13633
▁тоже	13634
▁bedste	13635
пан	13636
隊	13637
▁legge	13638
▁bru	13639
ិ	13640
官	13641
▁lahat	13642
▁Produkt	13643
bau	13644
▁juni	13645
▁29.	13646
不同的	13647
▁might	13648
නය	13649
nay	13650
▁platform	13651
▁આવી	13652
zeit	13653
ім	13654
▁féidir	13655
▁circa	13656
ээс	13657
▁Га	13658
▁annet	13659
▁ಮೇಲೆ	13660
▁Kap	13661
▁meie	13662
是一个	13663
▁kunna	13664
nor	13665
▁Nederland	13666
▁ලබා	13667
▁VE	13668
cima	13669
▁ankaŭ	13670
▁hướng	13671
▁apabila	13672
▁jan	13673
▁ін	13674
▁amely	13675
▁Mak	13676
шта	13677
▁всеки	13678
▁firmy	13679
ични	13680
▁krav	13681
ового	13682
56	13683
▁Shu	13684
▁AR	13685
▁времени	13686
ระบบ	13687
起来	13688
was	13689
▁alguns	13690
wiki	13691
也不	13692
▁beli	13693
▁izay	13694
▁keep	13695
▁nov	13696
▁quản	13697
▁ሰው	13698
▁kasi	13699
ncia	13700
нии	13701
лад	13702
▁Music	13703
лат	13704
▁ম	13705
▁단	13706
▁komt	13707
tuk	13708
CC	13709
уу	13710
相信	13711
▁bilər	13712
ключ	13713
▁Kha	13714
▁Tot	13715
nių	13716
år	13717
▁გ	13718
▁zile	13719
דה	13720
▁ame	13721
qua	13722
质量	13723
▁आफ्नो	13724
▁toute	13725
▁ئۇ	13726
▁poti	13727
tol	13728
čno	13729
获得	13730
▁ਪਰ	13731
▁unge	13732
tve	13733
իս	13734
▁ສະ	13735
▁mode	13736
▁අප	13737
系列	13738
TT	13739
▁හරි	13740
▁მა	13741
▁obraz	13742
▁विश्व	13743
▁permite	13744
▁발	13745
▁оста	13746
▁dice	13747
නේ	13748
▁taga	13749
▁അത്	13750
▁kole	13751
lā	13752
▁дуже	13753
▁ידי	13754
▁temat	13755
▁Ор	13756
▁ይህ	13757
▁anul	13758
دان	13759
arekin	13760
nai	13761
▁Pot	13762
▁MI	13763
ண	13764
▁story	13765
▁prote	13766
يق	13767
牌	13768
▁Vas	13769
▁በአ	13770
ริ	13771
annya	13772
▁busca	13773
ικού	13774
透過	13775
ประ	13776
sime	13777
ица	13778
▁Gr	13779
▁הב	13780
āt	13781
節	13782
國家	13783
top	13784
▁Tips	13785
ij	13786
▁Wo	13787
zam	13788
▁moje	13789
▁έ	13790
▁Port	13791
▁suso	13792
▁چي	13793
▁Start	13794
▁എന്റെ	13795
tuko	13796
然	13797
▁ബ	13798
ጭ	13799
級	13800
ผ่าน	13801
sex	13802
▁добре	13803
▁שלא	13804
קס	13805
▁1:	13806
لەر	13807
▁denn	13808
取得	13809
▁curso	13810
통	13811
▁Σε	13812
لې	13813
ání	13814
▁रूप	13815
▁мемлекеттік	13816
ello	13817
ለው	13818
▁więc	13819
▁bot	13820
2000	13821
▁forme	13822
يز	13823
▁មួយ	13824
▁என்	13825
▁chứng	13826
ış	13827
▁minha	13828
▁Diese	13829
▁indi	13830
ධ	13831
▁Rus	13832
▁travail	13833
▁હતો	13834
▁existe	13835
▁Những	13836
▁kartu	13837
nye	13838
▁campo	13839
▁Telefon	13840
▁ngay	13841
▁организации	13842
▁Bộ	13843
cen	13844
על	13845
▁күн	13846
▁ceea	13847
ľa	13848
助	13849
▁kỳ	13850
ቦ	13851
▁heç	13852
国内	13853
િત	13854
ött	13855
▁tuổi	13856
nner	13857
tega	13858
پر	13859
▁haya	13860
▁جاری	13861
..?	13862
keta	13863
▁vitamin	13864
ሚ	13865
gni	13866
▁1993	13867
▁đánh	13868
▁Omrop	13869
▁toegang	13870
け	13871
▁ଏହା	13872
▁Už	13873
ندا	13874
▁بول	13875
▁thuật	13876
කින්	13877
▁berbagai	13878
▁fő	13879
ণ	13880
▁futbol	13881
▁iso	13882
▁قتل	13883
ഡി	13884
hou	13885
tico	13886
▁Không	13887
▁Vid	13888
താ	13889
ായ	13890
료	13891
▁Mel	13892
▁mental	13893
zz	13894
▁വാ	13895
ಿರುವ	13896
ψ	13897
▁pozna	13898
강	13899
▁bikin	13900
▁гор	13901
남	13902
84	13903
▁авто	13904
્ય	13905
ago	13906
бір	13907
▁mitte	13908
▁computer	13909
▁nghệ	13910
▁ersten	13911
Ка	13912
▁저	13913
▁життя	13914
亦	13915
토	13916
antes	13917
▁president	13918
▁احمد	13919
hana	13920
පු	13921
▁ନେଇ	13922
inga	13923
▁wol	13924
▁бр	13925
ড	13926
▁rada	13927
▁같은	13928
ונים	13929
▁yazı	13930
▁tubuh	13931
▁ứng	13932
INA	13933
mang	13934
▁Czy	13935
晚	13936
KO	13937
jana	13938
▁همین	13939
MAN	13940
果	13941
ቢ	13942
▁cura	13943
kse	13944
தை	13945
▁vu	13946
▁إلا	13947
තු	13948
tý	13949
▁rock	13950
ಗಳಿಗೆ	13951
Կ	13952
ать	13953
▁ସହ	13954
କ୍	13955
▁4)	13956
▁verden	13957
하며	13958
▁gaz	13959
▁tots	13960
1%	13961
▁вопрос	13962
▁چا	13963
▁iOS	13964
▁Sor	13965
▁nuestra	13966
▁bylo	13967
▁가장	13968
▁ram	13969
ണി	13970
▁vedere	13971
▁කතා	13972
▁చేయ	13973
ydd	13974
▁Dag	13975
ierung	13976
▁toimi	13977
čné	13978
മി	13979
▁sahip	13980
▁Daar	13981
דר	13982
牛	13983
▁instrument	13984
▁Minh	13985
▁spe	13986
▁ничего	13987
Қ	13988
的话	13989
▁sahaja	13990
▁diam	13991
rita	13992
▁contre	13993
олог	13994
▁должны	13995
▁wî	13996
หนึ่ง	13997
▁ମଧ୍ୟ	13998
▁2011.	13999
▁weekend	14000
αλ	14001
▁mă	14002
▁seja	14003
אי	14004
__	14005
UN	14006
▁alatt	14007
還有	14008
▁gjorde	14009
ූ	14010
▁pagbaba	14011
▁number	14012
▁پو	14013
▁videre	14014
▁plast	14015
▁penge	14016
▁està	14017
▁entra	14018
▁ambiente	14019
현	14020
▁انتخابات	14021
पछि	14022
全面	14023
▁ਬ	14024
▁बे	14025
يح	14026
▁livet	14027
፥	14028
дик	14029
▁වෙලා	14030
いて	14031
ओ	14032
หลัง	14033
▁ilin	14034
alam	14035
▁nữ	14036
▁found	14037
▁समाचार	14038
туу	14039
▁προς	14040
▁foram	14041
roz	14042
اري	14043
▁ගන්න	14044
▁CH	14045
套	14046
cchi	14047
▁Info	14048
ហ	14049
▁sm	14050
web	14051
▁annat	14052
▁aktual	14053
▁घ	14054
Di	14055
ikan	14056
なかった	14057
ίου	14058
ично	14059
анд	14060
▁पि	14061
远	14062
▁bizi	14063
нин	14064
▁Kam	14065
ამ	14066
▁شوند	14067
ink	14068
ności	14069
စား	14070
olog	14071
需	14072
▁88	14073
▁તમે	14074
▁км	14075
▁కి	14076
材料	14077
▁Į	14078
णा	14079
權	14080
אל	14081
ANG	14082
evi	14083
ალ	14084
产业	14085
▁тра	14086
几	14087
ום	14088
bay	14089
ጀ	14090
▁Gran	14091
mā	14092
dai	14093
ագ	14094
▁sir	14095
riz	14096
க்கும்	14097
▁United	14098
▁verður	14099
▁Ан	14100
▁Jadi	14101
▁pamoja	14102
ହ	14103
▁7-	14104
1000	14105
▁कार्यालय	14106
▁TR	14107
ologia	14108
▁خوب	14109
▁avut	14110
심	14111
▁ấy	14112
▁pé	14113
ръ	14114
ók	14115
▁मह	14116
▁चुनाव	14117
▁Ég	14118
▁fr	14119
▁teknologi	14120
ສະ	14121
лом	14122
ଜ	14123
▁nila	14124
▁lát	14125
Մ	14126
▁많은	14127
ήσει	14128
軍	14129
▁fikk	14130
▁राम	14131
တြင္	14132
ൈ	14133
▁mand	14134
▁human	14135
जन	14136
book	14137
áció	14138
当然	14139
标准	14140
▁segunda	14141
임	14142
だけ	14143
改善	14144
▁invest	14145
▁faktor	14146
यो	14147
తా	14148
▁explica	14149
▁لها	14150
▁ඉ	14151
dri	14152
เมื่อ	14153
▁77	14154
ller	14155
ád	14156
час	14157
▁عدم	14158
ники	14159
ток	14160
▁დიდი	14161
▁nhỏ	14162
▁mumkin	14163
anka	14164
▁eius	14165
▁кол	14166
▁സാ	14167
Su	14168
▁menga	14169
prac	14170
▁части	14171
▁ես	14172
▁бұл	14173
▁வேண்டும்	14174
▁selepas	14175
▁Văn	14176
▁दि	14177
▁kuru	14178
rou	14179
ňa	14180
მის	14181
љ	14182
解决	14183
▁சு	14184
▁ainsi	14185
sine	14186
▁جون	14187
▁кан	14188
▁деца	14189
▁уу	14190
eller	14191
▁tell	14192
доб	14193
▁rem	14194
▁Big	14195
组	14196
▁dieses	14197
uksen	14198
cev	14199
▁ਕ	14200
anga	14201
ders	14202
▁drei	14203
જી	14204
▁भाग	14205
హ	14206
▁osoba	14207
▁birlikte	14208
ισ	14209
粉	14210
ări	14211
69	14212
▁perfekt	14213
▁XX	14214
แต่	14215
▁BO	14216
▁здоров	14217
▁Casino	14218
▁будут	14219
λή	14220
చ	14221
▁perquè	14222
kta	14223
掉	14224
▁bh	14225
53	14226
▁luôn	14227
acak	14228
оп	14229
leme	14230
▁Page	14231
▁práce	14232
▁கு	14233
▁پوء	14234
▁හ	14235
עת	14236
▁Asia	14237
▁그리고	14238
▁потому	14239
▁Now	14240
▁Stadt	14241
)。	14242
부터	14243
▁hag	14244
▁Anne	14245
▁omdat	14246
isesti	14247
ють	14248
▁Business	14249
志	14250
▁kilo	14251
▁ಕನ್ನಡ	14252
▁رئیس	14253
▁jetë	14254
RO	14255
Un	14256
ντ	14257
儿	14258
ଇ	14259
▁Donec	14260
ቸው	14261
ość	14262
ax	14263
升	14264
rika	14265
▁انهن	14266
▁teori	14267
▁විට	14268
kü	14269
▁جهان	14270
▁нещо	14271
جر	14272
ез	14273
▁ວ່າ	14274
▁kjer	14275
нима	14276
▁movie	14277
▁bele	14278
ਅ	14279
τό	14280
▁Paulo	14281
rlo	14282
▁était	14283
ću	14284
▁گو	14285
▁করুন	14286
▁Kad	14287
▁mobile	14288
зо	14289
▁nghĩ	14290
特別	14291
λο	14292
▁افزایش	14293
क्ष	14294
▁vaše	14295
ತೆ	14296
ků	14297
▁Band	14298
▁personer	14299
▁เมื่อ	14300
elu	14301
▁olmak	14302
ור	14303
▁Cap	14304
▁trợ	14305
gul	14306
нер	14307
ém	14308
▁iaitu	14309
▁Ва	14310
mut	14311
▁газар	14312
▁Hem	14313
దా	14314
▁OK	14315
▁informa	14316
▁ನಿ	14317
▁Shah	14318
▁sedikit	14319
▁pap	14320
ене	14321
▁heute	14322
キ	14323
▁pasta	14324
כה	14325
人才	14326
▁어	14327
ડા	14328
্যা	14329
▁muka	14330
▁sap	14331
▁tục	14332
gaan	14333
pada	14334
rz	14335
gus	14336
şti	14337
▁Kosovës	14338
▁روش	14339
▁zien	14340
▁ව	14341
行政	14342
▁Tôi	14343
さん	14344
‘‘	14345
▁tích	14346
▁좋은	14347
ତି	14348
则	14349
ანი	14350
发生	14351
▁xã	14352
ۋ	14353
▁natura	14354
▁Hol	14355
▁ደግሞ	14356
▁лучше	14357
ย์	14358
▁resto	14359
njem	14360
▁body	14361
になって	14362
▁cualquier	14363
▁director	14364
հ	14365
▁ilmu	14366
idh	14367
▁AN	14368
▁часа	14369
فة	14370
更新	14371
▁आता	14372
▁yet	14373
▁Gaeilge	14374
▁private	14375
▁صفحه	14376
▁fot	14377
▁kila	14378
▁آیا	14379
▁company	14380
jë	14381
▁participar	14382
sik	14383
▁bør	14384
▁समस्या	14385
▁الش	14386
▁inay	14387
lles	14388
αρ	14389
▁όταν	14390
▁kurang	14391
▁moral	14392
aci	14393
ур	14394
▁grote	14395
્	14396
Ն	14397
▁նա	14398
шен	14399
▁Entre	14400
遊	14401
▁Bạn	14402
▁কি	14403
▁veldig	14404
▁εξ	14405
ವಾದ	14406
▁Long	14407
ús	14408
▁فيه	14409
▁quindi	14410
yicha	14411
ální	14412
루	14413
ሱ	14414
▁dnes	14415
▁DAN	14416
ağı	14417
んだ	14418
▁фото	14419
▁दिल्ली	14420
▁berada	14421
ARA	14422
▁ново	14423
ило	14424
inne	14425
avo	14426
7%	14427
чна	14428
jot	14429
▁kiuj	14430
▁Kir	14431
▁later	14432
vala	14433
▁Rock	14434
ติ	14435
rä	14436
sted	14437
mari	14438
必须	14439
▁සිදු	14440
▁Ook	14441
▁буй	14442
▁Porn	14443
破	14444
▁hết	14445
られる	14446
▁محل	14447
▁анти	14448
▁family	14449
▁kommen	14450
▁ව්	14451
▁CON	14452
пад	14453
aika	14454
資訊	14455
झ	14456
▁rent	14457
▁diğer	14458
▁macam	14459
吉	14460
▁tho	14461
ária	14462
▁mạnh	14463
▁ຈະ	14464
teri	14465
jm	14466
▁Ef	14467
▁ком	14468
▁kiến	14469
ेको	14470
▁belə	14471
ကာ	14472
beli	14473
▁elektron	14474
治	14475
▁ತ	14476
▁ମା	14477
▁üks	14478
费	14479
рин	14480
its	14481
ような	14482
▁VIDEO	14483
▁ఉ	14484
ıyor	14485
ific	14486
▁December	14487
tima	14488
▁Ind	14489
▁seluruh	14490
iteit	14491
學習	14492
▁Tun	14493
ಪ್	14494
SC	14495
▁условия	14496
▁իսկ	14497
价	14498
職	14499
اور	14500
더	14501
కో	14502
UR	14503
▁Има	14504
▁hol	14505
傳	14506
lea	14507
abi	14508
▁utama	14509
▁যে	14510
期待	14511
▁बदल	14512
▁якщо	14513
▁ולא	14514
▁thủ	14515
▁vaikka	14516
خت	14517
▁penis	14518
ndra	14519
yam	14520
රි	14521
өө	14522
सम्म	14523
▁اش	14524
tang	14525
▁تیم	14526
ська	14527
ጽ	14528
▁gjatë	14529
ців	14530
▁կողմից	14531
▁Nếu	14532
▁ਪੰਜਾਬ	14533
ned	14534
Ni	14535
▁একটি	14536
▁power	14537
▁тема	14538
каз	14539
כות	14540
석	14541
▁kerajaan	14542
▁processo	14543
ಿಸಿ	14544
▁خانه	14545
77	14546
▁شا	14547
▁ਤਾਂ	14548
▁будь	14549
cję	14550
:「	14551
ழ	14552
ху	14553
▁ак	14554
▁ហើយ	14555
.11.	14556
▁kuitenkin	14557
▁mūsų	14558
▁ئە	14559
▁США	14560
▁tych	14561
ସ୍	14562
▁gure	14563
кен	14564
银行	14565
▁interior	14566
▁تعداد	14567
▁zwischen	14568
dien	14569
zás	14570
▁був	14571
▁kishte	14572
▁absolut	14573
▁Европа	14574
▁possibile	14575
▁твор	14576
オ	14577
ming	14578
▁energie	14579
fil	14580
itaj	14581
аны	14582
▁lähe	14583
uhan	14584
▁indica	14585
▁zaradi	14586
▁einmal	14587
▁Başkanı	14588
▁τ	14589
▁göz	14590
边	14591
▁남	14592
▁بشكل	14593
▁.....	14594
▁Prezident	14595
غان	14596
▁superior	14597
▁thay	14598
ník	14599
ಲಾ	14600
▁ପ୍ର	14601
▁does	14602
▁يت	14603
66	14604
ယူ	14605
رن	14606
പ്	14607
▁España	14608
AT	14609
▁nin	14610
лады	14611
pha	14612
▁menge	14613
▁DU	14614
▁ብ	14615
▁μετα	14616
▁tru	14617
cción	14618
▁کړئ	14619
ēja	14620
િક	14621
ளி	14622
ቲ	14623
erar	14624
▁persoas	14625
▁حول	14626
▁komentar	14627
говор	14628
▁حساب	14629
▁idag	14630
▁James	14631
ають	14632
▁minutes	14633
ရှိ	14634
武	14635
▁друга	14636
▁möglich	14637
صف	14638
▁günü	14639
պ	14640
资源	14641
န္	14642
szy	14643
▁Sve	14644
اي	14645
▁kirin	14646
▁celo	14647
▁ون	14648
雙	14649
▁gør	14650
▁නැහැ	14651
ստ	14652
ining	14653
假	14654
శ	14655
tec	14656
ιο	14657
▁हाम्रो	14658
▁भएका	14659
edi	14660
▁δε	14661
เล่น	14662
▁Elle	14663
02.	14664
▁dost	14665
▁boek	14666
etik	14667
ију	14668
стар	14669
ット	14670
YA	14671
▁६	14672
ských	14673
▁کیلئے	14674
سی	14675
FA	14676
avi	14677
▁להיות	14678
ип	14679
▁іс	14680
ivi	14681
▁đặc	14682
▁مرکز	14683
。“	14684
坐	14685
lg	14686
шко	14687
IR	14688
ڙ	14689
շ	14690
▁iku	14691
idas	14692
лин	14693
▁باعث	14694
▁لن	14695
uksia	14696
σης	14697
ٌ	14698
ीत	14699
▁exp	14700
▁¡	14701
▁ച	14702
▁गरी	14703
▁келген	14704
lî	14705
裝	14706
lut	14707
tő	14708
лив	14709
ంచ	14710
▁куп	14711
ഴ	14712
▁Europe	14713
vē	14714
▁తెలుగు	14715
gem	14716
▁barang	14717
ttiin	14718
▁ምን	14719
▁оваа	14720
▁пам	14721
▁человека	14722
▁leurs	14723
zd	14724
▁တ	14725
▁papa	14726
▁אשר	14727
sına	14728
架	14729
қы	14730
▁مد	14731
龙	14732
زم	14733
▁درباره	14734
▁Waziri	14735
▁қа	14736
▁Website	14737
▁көр	14738
ját	14739
▁ಕೆ	14740
▁часто	14741
▁skriver	14742
▁vårt	14743
▁тебе	14744
ტო	14745
▁Bau	14746
dığı	14747
▁위한	14748
lur	14749
なく	14750
čen	14751
▁vele	14752
▁sco	14753
手机	14754
TER	14755
јте	14756
▁fina	14757
ово	14758
เวลา	14759
チ	14760
▁dulu	14761
สามารถ	14762
▁dalle	14763
▁שלי	14764
▁ನಮ್ಮ	14765
ทุก	14766
▁মা	14767
▁quali	14768
部门	14769
▁oku	14770
رى	14771
ады	14772
97	14773
▁muu	14774
wing	14775
හි	14776
▁Ә	14777
මා	14778
▁הא	14779
▁அந்த	14780
电影	14781
▁mukha	14782
fn	14783
ních	14784
▁actividades	14785
▁minim	14786
▁George	14787
▁liber	14788
▁पी	14789
推薦	14790
นิ	14791
▁dies	14792
▁ได้	14793
els	14794
▁дана	14795
▁urma	14796
eix	14797
▁anterior	14798
▁bri	14799
وز	14800
▁juli	14801
▁നിന്നും	14802
ļu	14803
▁Your	14804
▁потом	14805
▁одного	14806
▁որը	14807
ध	14808
нем	14809
▁76	14810
▁Bila	14811
最高	14812
คือ	14813
▁potom	14814
ують	14815
ႀကီး	14816
wit	14817
▁farklı	14818
▁97	14819
迷	14820
izar	14821
▁đạo	14822
▁realiz	14823
tys	14824
▁Era	14825
▁буду	14826
ჩ	14827
▁pek	14828
▁Kunden	14829
核	14830
▁ਵਿ	14831
bha	14832
▁będą	14833
▁municipal	14834
වල	14835
uzi	14836
▁اعلام	14837
▁flu	14838
▁మన	14839
▁recursos	14840
变	14841
출	14842
楼	14843
▁lekker	14844
lana	14845
pozi	14846
▁When	14847
▁اعلان	14848
GA	14849
▁dias	14850
▁Bis	14851
ାଇ	14852
▁Ру	14853
▁Gro	14854
への	14855
▁מע	14856
מש	14857
▁match	14858
▁حسن	14859
▁Ν	14860
வில்	14861
▁Parlament	14862
ទ	14863
▁vaid	14864
▁sla	14865
▁Klik	14866
經	14867
▁Mỹ	14868
▁нар	14869
▁kombin	14870
▁والأ	14871
▁langt	14872
ése	14873
▁aynı	14874
积极	14875
▁aman	14876
▁350	14877
▁regul	14878
▁своей	14879
▁sav	14880
ច	14881
సీ	14882
론	14883
▁spune	14884
▁84	14885
▁Email	14886
ítás	14887
▁පත්	14888
94	14889
▁ਨਾ	14890
лага	14891
▁akt	14892
▁Ön	14893
त्र	14894
ುತ್ತದೆ	14895
▁mong	14896
rke	14897
▁باش	14898
▁ត្រូវ	14899
rö	14900
ђа	14901
љу	14902
ത്തി	14903
ଛି	14904
▁71	14905
▁filme	14906
lys	14907
▁झ	14908
▁центр	14909
शन	14910
သည္	14911
▁Mann	14912
▁धेरै	14913
医院	14914
▁läbi	14915
nyi	14916
▁کال	14917
▁نامه	14918
▁également	14919
一定	14920
▁Một	14921
▁period	14922
์	14923
▁الك	14924
▁которая	14925
▁studi	14926
исти	14927
▁idee	14928
▁73	14929
ਤੀ	14930
酸	14931
▁amit	14932
дна	14933
▁Store	14934
▁உள்ள	14935
æl	14936
▁ወ	14937
汽车	14938
աս	14939
▁নিয়ে	14940
▁English	14941
▁wala	14942
額	14943
▁nagu	14944
▁הזה	14945
▁pensa	14946
▁suite	14947
▁xây	14948
▁Christian	14949
▁ekstra	14950
▁alors	14951
uran	14952
▁kandidat	14953
sí	14954
▁bakal	14955
ことが	14956
▁orice	14957
▁konto	14958
jai	14959
▁idő	14960
acija	14961
entes	14962
dje	14963
▁lov	14964
▁gelen	14965
ђе	14966
層	14967
▁punkt	14968
▁اجتماعی	14969
▁бала	14970
▁파	14971
▁ਜ	14972
ори	14973
▁coup	14974
▁ಆದರೆ	14975
▁Ul	14976
recht	14977
▁Thomas	14978
ସି	14979
▁plek	14980
oti	14981
тал	14982
खा	14983
Τ	14984
gina	14985
▁outra	14986
zal	14987
▁ні	14988
▁કોઈ	14989
▁ส	14990
▁hwn	14991
ลา	14992
▁ຄວາມ	14993
▁virus	14994
▁proceso	14995
念	14996
▁univers	14997
чен	14998
喜欢	14999
▁Pakistan	15000
▁चार	15001
▁uy	15002
▁chur	15003
▁oro	15004
▁refer	15005
▁wiele	15006
▁آمریکا	15007
滿	15008
sione	15009
▁طلب	15010
▁astfel	15011
AC	15012
▁bunu	15013
▁zoals	15014
ದೆ	15015
дав	15016
Ke	15017
▁hata	15018
rci	15019
Κ	15020
▁əsas	15021
▁വര്	15022
寫	15023
背	15024
▁kena	15025
pata	15026
▁dünya	15027
lož	15028
र्थ	15029
▁Mun	15030
▁verdi	15031
isation	15032
▁član	15033
▁කිරීමට	15034
▁سخت	15035
航	15036
人们	15037
▁biến	15038
▁всё	15039
▁kuch	15040
守	15041
▁tempor	15042
lük	15043
▁both	15044
▁8-	15045
▁lege	15046
เล	15047
▁चल	15048
拥有	15049
ונות	15050
ški	15051
фи	15052
ရဲ႕	15053
▁mati	15054
력	15055
这样的	15056
чих	15057
▁evento	15058
ը՝	15059
▁svoju	15060
▁ಸಂ	15061
影響	15062
▁daw	15063
නු	15064
船	15065
kl	15066
노	15067
易	15068
ये	15069
▁illa	15070
科学	15071
▁respect	15072
▁العربية	15073
ερ	15074
▁Amazon	15075
sht	15076
▁nuovo	15077
▁جهت	15078
ુ	15079
hid	15080
▁ul	15081
▁Bak	15082
▁Nos	15083
تىن	15084
▁tä	15085
聽	15086
اپ	15087
▁هناك	15088
ವೆ	15089
症	15090
▁đồ	15091
▁مخ	15092
rə	15093
▁(10	15094
szám	15095
ול	15096
කර	15097
ജ	15098
▁kira	15099
ція	15100
పి	15101
▁domin	15102
▁जन	15103
加入	15104
▁wurden	15105
Ս	15106
▁तरह	15107
会议	15108
▁kurie	15109
:10	15110
▁78	15111
▁ର	15112
我们的	15113
мент	15114
▁стране	15115
vek	15116
▁jim	15117
產	15118
тно	15119
▁lisää	15120
▁قرآن	15121
▁paper	15122
try	15123
▁74	15124
▁yan	15125
▁деле	15126
▁Yu	15127
700	15128
治療	15129
▁Street	15130
ዊ	15131
▁एवं	15132
▁също	15133
ТА	15134
▁पद	15135
ප්	15136
тели	15137
unum	15138
▁mums	15139
kuu	15140
พา	15141
▁wada	15142
tze	15143
▁тој	15144
tty	15145
ļa	15146
lő	15147
▁macht	15148
▁अनुसार	15149
ść	15150
مي	15151
▁Natur	15152
boj	15153
▁déjà	15154
▁جی	15155
ىسى	15156
▁ڪم	15157
оо	15158
हि	15159
开发	15160
▁FC	15161
سي	15162
▁وو	15163
버	15164
▁dnia	15165
▁гледа	15166
▁bruger	15167
ნო	15168
▁galima	15169
배	15170
▁giảm	15171
իչ	15172
ათ	15173
քի	15174
円	15175
ров	15176
▁ვი	15177
集团	15178
▁चा	15179
情報	15180
▁ካ	15181
cra	15182
▁buah	15183
▁personnes	15184
PI	15185
جن	15186
▁Tahun	15187
ości	15188
skie	15189
▁add	15190
週	15191
▁دن	15192
▁prí	15193
ક્ષ	15194
▁phục	15195
▁produkter	15196
▁سوال	15197
▁mellem	15198
▁امروز	15199
▁לב	15200
▁palju	15201
னா	15202
▁როგორ	15203
▁etdi	15204
-9	15205
▁конкурс	15206
krat	15207
▁eles	15208
င္း	15209
kum	15210
▁متعلق	15211
rant	15212
▁quella	15213
▁prof	15214
▁сан	15215
يش	15216
▁فروش	15217
larning	15218
▁όλα	15219
持	15220
▁đủ	15221
▁deel	15222
ਸੀ	15223
▁mogelijk	15224
▁ایجاد	15225
▁revi	15226
lish	15227
θε	15228
▁коп	15229
ūs	15230
טי	15231
▁እን	15232
μο	15233
▁tarde	15234
▁rõ	15235
▁Form	15236
ٽي	15237
老师	15238
даа	15239
乐	15240
રો	15241
▁dazu	15242
▁проблеми	15243
rade	15244
▁تلاش	15245
edu	15246
▁μ	15247
stoj	15248
▁යා	15249
▁tart	15250
hai	15251
сна	15252
ęs	15253
▁Nä	15254
დეს	15255
一种	15256
▁зах	15257
▁процес	15258
▁bruk	15259
▁área	15260
మే	15261
วง	15262
wod	15263
▁समाज	15264
▁rede	15265
▁pon	15266
▁Kata	15267
SS	15268
▁eest	15269
▁Person	15270
▁sites	15271
كى	15272
▁ओ	15273
־	15274
▁encontrar	15275
86	15276
Per	15277
गत	15278
тель	15279
skej	15280
nā	15281
▁қызмет	15282
KE	15283
▁SEO	15284
▁ова	15285
▁considera	15286
▁bërë	15287
hun	15288
מן	15289
双	15290
▁jól	15291
gene	15292
mpa	15293
ਲੀ	15294
▁mimo	15295
▁eli	15296
▁महाराष्ट्र	15297
找到	15298
ук	15299
LE	15300
JE	15301
ům	15302
▁здесь	15303
ತ್ತ	15304
ынан	15305
▁spraw	15306
קה	15307
▁între	15308
пис	15309
▁protiv	15310
▁δ	15311
ీ	15312
▁여	15313
খ	15314
▁altijd	15315
maz	15316
▁hiểu	15317
แห่ง	15318
▁способ	15319
tana	15320
▁jā	15321
cro	15322
▁maga	15323
▁rien	15324
▁यांनी	15325
▁toch	15326
lī	15327
▁لكن	15328
کن	15329
▁المت	15330
▁баш	15331
ilta	15332
▁mayor	15333
▁Sud	15334
▁AK	15335
▁फ	15336
ével	15337
▁prezident	15338
▁سطح	15339
▁Suomen	15340
ລະ	15341
▁cari	15342
ブ	15343
гы	15344
▁ഗ	15345
增长	15346
cina	15347
▁Мен	15348
δα	15349
יל	15350
уваат	15351
▁μία	15352
▁igual	15353
▁ಸಿ	15354
สุด	15355
िन	15356
ाय	15357
ଏ	15358
เด	15359
▁Nov	15360
▁leer	15361
探	15362
Lo	15363
仍	15364
▁gambar	15365
▁Motor	15366
龍	15367
▁انہوں	15368
左右	15369
ciju	15370
▁informatie	15371
ኖ	15372
引	15373
▁keluarga	15374
چى	15375
▁osob	15376
▁ஏ	15377
▁вели	15378
tää	15379
▁cultural	15380
▁food	15381
liku	15382
AP	15383
▁Spiel	15384
▁транспорт	15385
dige	15386
▁Artikel	15387
גן	15388
關	15389
ct	15390
▁фа	15391
▁देख	15392
▁minute	15393
最後	15394
աց	15395
RS	15396
▁избор	15397
တွေ	15398
აში	15399
▁why	15400
들을	15401
▁thanh	15402
ial	15403
вести	15404
daj	15405
▁dve	15406
▁tahay	15407
▁fru	15408
▁bà	15409
▁ڈی	15410
▁course	15411
▁кам	15412
▁பு	15413
niem	15414
▁אותו	15415
uks	15416
કા	15417
idades	15418
▁Şi	15419
▁ус	15420
▁rela	15421
▁đặt	15422
▁đăng	15423
▁כמה	15424
ျဖစ္	15425
▁account	15426
յ	15427
可是	15428
mag	15429
▁novembre	15430
▁2010.	15431
▁Sil	15432
▁possono	15433
▁(...)	15434
יד	15435
去年	15436
▁dollar	15437
직	15438
schen	15439
▁minimum	15440
▁Από	15441
继续	15442
▁върху	15443
ներից	15444
▁தான்	15445
成本	15446
效果	15447
kach	15448
▁által	15449
ව්	15450
št	15451
ବେ	15452
களில்	15453
ങ്ങളും	15454
▁zakon	15455
ద్	15456
▁ಬಿ	15457
mul	15458
дон	15459
مت	15460
▁verder	15461
▁hori	15462
▁oldal	15463
dot	15464
▁semakin	15465
▁würde	15466
AA	15467
ွ	15468
▁þeim	15469
邊	15470
Ι	15471
▁والی	15472
tki	15473
▁Informationen	15474
纳	15475
కే	15476
mont	15477
类	15478
нос	15479
dda	15480
▁bada	15481
ത്തു	15482
pdf	15483
▁पोस्ट	15484
▁സര്	15485
▁عدالت	15486
гла	15487
▁നിന്ന്	15488
반	15489
▁without	15490
▁FA	15491
rte	15492
يين	15493
કો	15494
λέ	15495
▁voit	15496
▁Green	15497
森	15498
▁सुन	15499
▁والت	15500
овић	15501
▁Via	15502
jor	15503
▁turn	15504
▁vii	15505
mesi	15506
▁mają	15507
ڙي	15508
▁※	15509
▁බල	15510
ıb	15511
дал	15512
ON	15513
ધ	15514
▁digər	15515
ame	15516
▁Rama	15517
▁зад	15518
aw	15519
▁sea	15520
▁Chu	15521
决定	15522
▁وارد	15523
▁mən	15524
गी	15525
▁значи	15526
返	15527
▁bike	15528
רו	15529
喝	15530
▁hain	15531
ంది	15532
יז	15533
lands	15534
觉得	15535
ദ്	15536
ume	15537
▁ਜੀ	15538
▁kommt	15539
άρ	15540
তি	15541
投資	15542
▁ମ	15543
▁سلام	15544
▁ባ	15545
▁baby	15546
iji	15547
▁garanti	15548
▁change	15549
▁1-2	15550
hna	15551
▁gero	15552
യിലെ	15553
▁31.	15554
row	15555
juma	15556
▁jossa	15557
▁мене	15558
▁gai	15559
▁ብቻ	15560
▁ប្រ	15561
▁място	15562
▁salon	15563
▁پي	15564
kia	15565
▁bỏ	15566
EK	15567
▁druge	15568
▁កម្ពុជា	15569
▁oso	15570
▁Maha	15571
▁optim	15572
▁2:	15573
▁sigur	15574
gad	15575
▁Chatroulette	15576
保障	15577
▁Kā	15578
▁नेता	15579
ទៅ	15580
tah	15581
▁комплекс	15582
IV	15583
▁Beste	15584
ţe	15585
dana	15586
▁ഓ	15587
▁《	15588
只能	15589
āli	15590
之後	15591
gle	15592
▁camera	15593
▁Rom	15594
eco	15595
mă	15596
скиот	15597
▁خیلی	15598
▁дни	15599
▁מאוד	15600
ril	15601
лап	15602
▁RSS	15603
▁Portugal	15604
▁ملي	15605
รัก	15606
▁дзе	15607
imu	15608
▁ഉ	15609
▁група	15610
▁giorno	15611
▁Comp	15612
라고	15613
rje	15614
etti	15615
▁հետո	15616
مو	15617
▁estat	15618
▁Cup	15619
07.	15620
ecek	15621
▁יו	15622
▁aka	15623
智	15624
ನ್ನ	15625
വാ	15626
▁جميع	15627
▁ม	15628
▁sposób	15629
▁ძალიან	15630
▁Leben	15631
▁meri	15632
保护	15633
▁Uma	15634
处理	15635
▁figura	15636
▁свят	15637
וי	15638
BU	15639
▁Bri	15640
αι	15641
▁केही	15642
▁1980	15643
cap	15644
وع	15645
▁questi	15646
▁поради	15647
▁سنگ	15648
▁Problem	15649
esse	15650
▁تنها	15651
▁सिंह	15652
▁orden	15653
.12.	15654
კო	15655
▁dhéanamh	15656
最后	15657
两个	15658
▁liter	15659
ಿನ	15660
▁କରିବା	15661
וח	15662
odi	15663
▁Улсын	15664
Tu	15665
rre	15666
▁वो	15667
▁لري	15668
нэ	15669
▁ala	15670
▁92	15671
▁American	15672
▁hope	15673
▁정보	15674
▁مسلم	15675
▁durant	15676
▁តាម	15677
▁Cre	15678
मि	15679
ич	15680
மே	15681
ದಿಂದ	15682
旅行	15683
▁fundit	15684
▁smak	15685
ә	15686
ांना	15687
▁suma	15688
速	15689
дагы	15690
▁በተ	15691
▁ļoti	15692
▁могат	15693
▁wirklich	15694
mada	15695
▁області	15696
iš	15697
▁شریک	15698
▁सब	15699
▁another	15700
сында	15701
kaz	15702
ונה	15703
ebb	15704
țe	15705
▁tiga	15706
▁organiza	15707
这么	15708
নে	15709
▁것이다	15710
lej	15711
▁ž	15712
mais	15713
່	15714
aku	15715
▁otra	15716
▁մեծ	15717
▁Prze	15718
ството	15719
hän	15720
จริง	15721
▁هاي	15722
▁ર	15723
rent	15724
▁ինչպես	15725
үп	15726
▁تواند	15727
▁लोगों	15728
^^	15729
ಜಿ	15730
▁gdje	15731
▁125	15732
Γ	15733
▁каже	15734
骨	15735
cional	15736
دل	15737
▁nú	15738
▁rezultat	15739
▁toga	15740
ጫ	15741
▁uusi	15742
tov	15743
▁IS	15744
▁Hans	15745
jnë	15746
▁บาท	15747
63	15748
实施	15749
▁עו	15750
▁82	15751
ളി	15752
▁ਜਾ	15753
ené	15754
️	15755
▁sho	15756
▁Name	15757
▁Japan	15758
psi	15759
置	15760
▁ග	15761
▁због	15762
▁haft	15763
雅	15764
ష్	15765
UK	15766
▁മു	15767
待	15768
git	15769
71	15770
ൊ	15771
▁:-	15772
▁đình	15773
▁जान	15774
母	15775
▁مس	15776
▁деятельности	15777
rile	15778
كس	15779
عة	15780
▁koju	15781
стр	15782
▁sĩ	15783
▁واري	15784
bek	15785
▁Lang	15786
▁perfect	15787
▁nende	15788
▁ring	15789
▁Ren	15790
КА	15791
misel	15792
นะ	15793
태	15794
гө	15795
sas	15796
▁Selain	15797
яў	15798
▁වැඩ	15799
▁hivyo	15800
▁هدف	15801
▁minu	15802
punkt	15803
jük	15804
ћу	15805
▁نفر	15806
▁rak	15807
▁Azərbaycanda	15808
聲	15809
▁පා	15810
▁sup	15811
▁cine	15812
▁រ	15813
عي	15814
nės	15815
สูง	15816
▁ਇਕ	15817
幾	15818
▁Ao	15819
▁یوه	15820
▁alkohol	15821
▁mie	15822
нде	15823
▁fact	15824
▁neza	15825
၁	15826
▁lucru	15827
▁Budapest	15828
mate	15829
▁Kre	15830
▁κα	15831
▁alto	15832
▁maja	15833
Ku	15834
Ă	15835
▁پاس	15836
▁गो	15837
▁mendapat	15838
▁ممکن	15839
▁હતું	15840
2009	15841
▁virkelig	15842
ക്കി	15843
▁ним	15844
চ	15845
rana	15846
▁kişi	15847
▁हि	15848
▁Hoe	15849
▁yap	15850
▁jūs	15851
▁알	15852
▁Pr	15853
▁liste	15854
▁aba	15855
▁должен	15856
▁סי	15857
▁धर्म	15858
▁рэ	15859
▁mó	15860
全部	15861
īs	15862
она	15863
▁מא	15864
▁Sab	15865
parti	15866
iranje	15867
▁위	15868
▁cita	15869
穿	15870
なので	15871
iĝis	15872
▁μην	15873
▁giorni	15874
▁tus	15875
ware	15876
ละ	15877
▁пар	15878
ଗ	15879
კი	15880
▁Central	15881
mond	15882
▁گرفته	15883
▁acord	15884
报告	15885
▁услуги	15886
▁weil	15887
ੰ	15888
▁national	15889
▁кап	15890
хо	15891
受到	15892
ബി	15893
oto	15894
现	15895
Ver	15896
▁kvinner	15897
stvu	15898
▁pjesë	15899
关	15900
▁Are	15901
▁phố	15902
cik	15903
lika	15904
ини	15905
▁ellen	15906
יט	15907
שה	15908
erade	15909
▁Они	15910
▁هئي	15911
▁Sva	15912
▁regula	15913
remos	15914
ácie	15915
란	15916
▁distribu	15917
▁musik	15918
держ	15919
警	15920
▁пер	15921
考	15922
▁tiết	15923
▁cứu	15924
▁blok	15925
▁bhi	15926
▁ర	15927
▁susi	15928
▁арга	15929
▁тест	15930
▁kompleks	15931
▁yung	15932
▁ç	15933
wia	15934
▁didn	15935
▁सदस्य	15936
▁Gen	15937
aro	15938
▁eskorte	15939
▁فکر	15940
▁між	15941
▁Від	15942
dü	15943
そう	15944
ျခင္း	15945
▁exemplo	15946
▁مطلب	15947
▁leve	15948
כי	15949
▁efekt	15950
での	15951
▁nhiệm	15952
▁chí	15953
久	15954
▁योजना	15955
▁осы	15956
男性	15957
πα	15958
vie	15959
래	15960
kri	15961
▁gần	15962
▁Якщо	15963
▁prava	15964
▁стар	15965
▁жаңа	15966
▁Bez	15967
▁నేను	15968
▁SO	15969
▁self	15970
dî	15971
रण	15972
▁problém	15973
▁また	15974
îne	15975
▁lingua	15976
▁ڪئي	15977
▁stata	15978
nę	15979
▁Бог	15980
▁важно	15981
Ch	15982
▁Лу	15983
▁brug	15984
▁Norsk	15985
▁diren	15986
▁zurück	15987
▁Alla	15988
:45	15989
▁박	15990
fl	15991
되는	15992
▁nim	15993
▁ກັບ	15994
▁đưa	15995
▁불	15996
фер	15997
▁intre	15998
▁δι	15999
▁humor	16000
hil	16001
▁natürlich	16002
▁आपको	16003
▁яе	16004
含	16005
▁nostre	16006
▁məlumat	16007
asyon	16008
▁واقع	16009
▁Camp	16010
יב	16011
τέ	16012
▁гэсэн	16013
rut	16014
▁nguyên	16015
▁negeri	16016
નાં	16017
dade	16018
普	16019
xan	16020
▁atë	16021
▁hjá	16022
▁వా	16023
եմ	16024
▁የኢትዮጵያ	16025
▁slut	16026
kku	16027
68	16028
▁ព័ត៌មាន	16029
▁professor	16030
▁familiar	16031
▁mö	16032
▁vode	16033
teurs	16034
▁Jawa	16035
▁từng	16036
nts	16037
യുള്ള	16038
ekin	16039
▁خاطر	16040
▁Без	16041
▁Obama	16042
ற்ற	16043
bú	16044
▁առաջ	16045
▁Teil	16046
तील	16047
▁până	16048
▁drog	16049
▁කියල	16050
йки	16051
лег	16052
▁Melayu	16053
▁သ	16054
▁menarik	16055
ിക്കുന്ന	16056
▁gusta	16057
▁trei	16058
折	16059
▁lit	16060
▁विशेष	16061
ออนไลน์	16062
posta	16063
▁94	16064
▁away	16065
▁ქ	16066
▁bayan	16067
▁kanske	16068
CD	16069
ship	16070
▁trai	16071
инин	16072
▁καθώς	16073
▁kiện	16074
▁نن	16075
的地方	16076
▁sted	16077
▁పై	16078
ਖ	16079
▁مناسب	16080
අ	16081
pare	16082
▁경	16083
▁всі	16084
▁ditë	16085
fit	16086
▁FOR	16087
▁bruker	16088
▁Über	16089
伊	16090
bos	16091
ೈ	16092
<	16093
▁teda	16094
▁eng	16095
方便	16096
▁darbo	16097
ún	16098
▁neuen	16099
೦	16100
▁danas	16101
ِّ	16102
▁gaar	16103
▁Unternehmen	16104
貨	16105
▁corre	16106
μά	16107
ाः	16108
▁Այս	16109
ტა	16110
▁своје	16111
▁бер	16112
COM	16113
▁heller	16114
taja	16115
▁odio	16116
▁совет	16117
▁Ní	16118
ຈະ	16119
▁Przy	16120
每天	16121
▁пост	16122
gne	16123
▁නැති	16124
▁ಪ	16125
scri	16126
iin	16127
▁area	16128
▁प्राप्त	16129
ngi	16130
дун	16131
ណ	16132
▁ശ	16133
íme	16134
Az	16135
▁बोल	16136
成立	16137
▁panel	16138
handel	16139
▁treball	16140
▁finner	16141
▁ສໍາລັບ	16142
στα	16143
abil	16144
bs	16145
lini	16146
▁biznes	16147
▁Efter	16148
дээ	16149
▁özel	16150
▁tiên	16151
▁leik	16152
▁yil	16153
▁ahli	16154
▁interesse	16155
▁(6	16156
友	16157
▁steht	16158
oba	16159
ዕ	16160
là	16161
▁Jean	16162
有人	16163
ონ	16164
ഷ്	16165
▁לאחר	16166
▁gøre	16167
免費	16168
▁neo	16169
▁යන්න	16170
電話	16171
▁söz	16172
▁Adam	16173
▁всичко	16174
▁ט	16175
▁сделать	16176
▁libera	16177
ikke	16178
▁स्	16179
▁cung	16180
▁алу	16181
aine	16182
▁jours	16183
ခ်	16184
рал	16185
▁photo	16186
▁pê	16187
▁mark	16188
結	16189
▁gram	16190
▁բ	16191
нік	16192
▁98	16193
રે	16194
▁spi	16195
wis	16196
rā	16197
ają	16198
색	16199
hold	16200
ൾ	16201
▁unor	16202
▁Një	16203
วิ	16204
目的	16205
▁внимание	16206
▁°	16207
मै	16208
▁পা	16209
rot	16210
rado	16211
▁których	16212
設定	16213
đe	16214
скі	16215
▁doua	16216
▁skil	16217
▁الد	16218
rium	16219
xu	16220
გან	16221
ပ္	16222
▁රි	16223
▁ପା	16224
銀行	16225
에서는	16226
▁health	16227
▁munka	16228
▁район	16229
ेल	16230
▁труд	16231
▁NATO	16232
กระ	16233
կան	16234
▁behöver	16235
▁живота	16236
▁viser	16237
▁ری	16238
رد	16239
▁podemos	16240
▁አል	16241
ால்	16242
▁kuid	16243
▁Aur	16244
▁sering	16245
對於	16246
воз	16247
▁mogą	16248
-14	16249
▁ši	16250
▁çıkar	16251
▁isi	16252
▁lợi	16253
급	16254
▁aliaj	16255
▁більше	16256
cích	16257
▁тип	16258
IC	16259
季	16260
▁چار	16261
▁jedan	16262
യ്ക്ക്	16263
▁आर्थिक	16264
▁MS	16265
▁пор	16266
倍	16267
▁شریف	16268
▁Mod	16269
enne	16270
LAR	16271
▁להת	16272
රා	16273
vent	16274
sca	16275
품	16276
▁Comment	16277
ติด	16278
▁30%	16279
▁ഷ	16280
▁oggi	16281
▁eshte	16282
▁системи	16283
▁Digital	16284
▁цьому	16285
▁Федерации	16286
▁දින	16287
дзі	16288
▁ಉ	16289
▁2,5	16290
HD	16291
▁spus	16292
▁dato	16293
▁arm	16294
청	16295
▁София	16296
цыі	16297
omba	16298
▁ಎಂಬ	16299
yal	16300
ADA	16301
魚	16302
▁kasih	16303
wak	16304
Mar	16305
收入	16306
▁bord	16307
▁Ле	16308
ក្នុង	16309
naj	16310
▁investi	16311
BI	16312
▁súas	16313
린	16314
▁በማ	16315
▁vă	16316
ването	16317
զ	16318
▁elektro	16319
▁pea	16320
▁Nag	16321
หลาย	16322
▁unik	16323
同時	16324
ಬೇಕು	16325
▁Musik	16326
▁kawasan	16327
降	16328
ije	16329
▁çi	16330
▁cáo	16331
గ్	16332
ጨ	16333
ញ	16334
▁ሁሉ	16335
nca	16336
▁تل	16337
क्स	16338
ె	16339
进入	16340
記	16341
skar	16342
ήσεις	16343
эх	16344
usu	16345
▁mahu	16346
ура	16347
▁kamer	16348
ىنىڭ	16349
VA	16350
ల్లో	16351
▁basa	16352
Υ	16353
▁ел	16354
▁Amma	16355
联	16356
▁дво	16357
▁پاسخ	16358
經濟	16359
74	16360
▁cliente	16361
▁Kh	16362
宝	16363
bila	16364
öv	16365
▁بې	16366
습니다	16367
ମ୍	16368
iso	16369
▁කියන	16370
▁ગ	16371
▁Ду	16372
▁гу	16373
▁veces	16374
کل	16375
ڭ	16376
▁^^	16377
ias	16378
▁kez	16379
▁autres	16380
▁cửa	16381
ု	16382
▁ଆଜି	16383
▁Haus	16384
▁예	16385
▁nuevo	16386
▁fur	16387
▁kanal	16388
▁Lê	16389
快速	16390
▁കു	16391
hati	16392
დე	16393
的小	16394
SU	16395
2008	16396
▁sekitar	16397
EL	16398
▁була	16399
富	16400
▁hold	16401
▁liten	16402
»:	16403
데	16404
你们	16405
▁deri	16406
gua	16407
作用	16408
mica	16409
▁უფრო	16410
▁equipo	16411
▁ہوتا	16412
▁حالت	16413
聯	16414
ibh	16415
▁darba	16416
kro	16417
赛	16418
▁tangan	16419
▁vest	16420
▁ose	16421
▁gây	16422
▁dung	16423
▁Partner	16424
zek	16425
陈	16426
్యా	16427
run	16428
ബ	16429
▁انقلاب	16430
▁laŭ	16431
ndum	16432
▁Dating	16433
▁Ты	16434
▁gab	16435
陳	16436
▁जना	16437
▁pravo	16438
▁मान	16439
ቤ	16440
▁mele	16441
lain	16442
▁шта	16443
IL	16444
▁graag	16445
▁ball	16446
▁উ	16447
ฯ	16448
ကြ	16449
tou	16450
▁fără	16451
▁خارج	16452
čke	16453
▁reading	16454
▁chia	16455
▁Mana	16456
▁sistemi	16457
▁última	16458
▁**	16459
ফ	16460
rra	16461
▁भए	16462
öt	16463
ονται	16464
永	16465
bert	16466
▁kaum	16467
▁бет	16468
နဲ့	16469
▁байдаг	16470
▁danske	16471
เด็ก	16472
▁qualquer	16473
Es	16474
▁poste	16475
mati	16476
媒体	16477
▁जे	16478
itti	16479
uš	16480
აა	16481
▁svojim	16482
നു	16483
▁пат	16484
▁acaba	16485
▁servi	16486
▁looking	16487
▁sıra	16488
ాలి	16489
▁دلیل	16490
จัด	16491
▁होगा	16492
▁배	16493
rau	16494
oor	16495
▁оның	16496
▁मुख्य	16497
fun	16498
▁Kalau	16499
▁ly	16500
▁való	16501
ಮಾ	16502
▁81	16503
專	16504
▁Life	16505
▁शेयर	16506
rish	16507
▁poden	16508
▁صلى	16509
▁հայ	16510
▁Ent	16511
▁TU	16512
▁qal	16513
▁personale	16514
▁Пи	16515
的大	16516
νό	16517
యి	16518
▁oltre	16519
ბი	16520
េ	16521
▁Mala	16522
niz	16523
nul	16524
▁আর	16525
▁நா	16526
тро	16527
▁စ	16528
buk	16529
▁box	16530
gada	16531
shin	16532
▁thư	16533
▁sát	16534
▁ennen	16535
▁sezon	16536
എസ്	16537
▁개	16538
▁snel	16539
▁Azərbaycanın	16540
▁steeds	16541
تك	16542
▁quale	16543
▁kies	16544
▁Kau	16545
EC	16546
▁Вам	16547
ξε	16548
ئے	16549
বে	16550
▁Dunia	16551
▁ки	16552
▁voz	16553
▁Romania	16554
▁بررسی	16555
▁Opera	16556
▁доступ	16557
▁buku	16558
თვის	16559
tish	16560
ası	16561
יון	16562
▁آغاز	16563
ૂ	16564
uga	16565
վող	16566
▁stora	16567
▁rapport	16568
▁piano	16569
有关	16570
wah	16571
▁اصلی	16572
▁uzun	16573
单位	16574
rti	16575
য়া	16576
నం	16577
lal	16578
▁kini	16579
קי	16580
เครื่อง	16581
▁مرد	16582
כם	16583
▁Khi	16584
पर	16585
▁प्रधानमन्त्री	16586
heit	16587
üm	16588
θεί	16589
ਰੇ	16590
llu	16591
▁punya	16592
▁Hva	16593
ძ	16594
매	16595
ที	16596
tár	16597
话	16598
ଥ	16599
ović	16600
ගෙ	16601
ซี	16602
▁oedd	16603
Jo	16604
▁හැකි	16605
skem	16606
군	16607
▁წ	16608
▁analiz	16609
▁short	16610
속	16611
wu	16612
ास	16613
▁форум	16614
cep	16615
▁stol	16616
ങ്ക	16617
▁המו	16618
:20	16619
▁atsi	16620
您的	16621
▁vivo	16622
维	16623
ադ	16624
RI	16625
дзя	16626
▁baz	16627
lok	16628
שי	16629
Google	16630
▁vidi	16631
이나	16632
▁bởi	16633
ٹی	16634
oo	16635
▁ôl	16636
▁Է	16637
▁había	16638
▁bahasa	16639
▁rett	16640
жен	16641
▁лишь	16642
产	16643
▁खा	16644
▁Suid	16645
▁kwe	16646
经营	16647
▁situation	16648
▁mục	16649
▁ହୋଇ	16650
lista	16651
ంద	16652
▁емес	16653
▁nič	16654
▁2.0	16655
เกิด	16656
لام	16657
▁ભ	16658
哈	16659
▁gdy	16660
▁열	16661
ями	16662
▁කල	16663
jski	16664
98	16665
▁Bin	16666
נס	16667
ుడు	16668
▁конечно	16669
ffe	16670
患者	16671
ināt	16672
▁reag	16673
▁програм	16674
-11	16675
▁tə	16676
最新	16677
▁እንደሚ	16678
owany	16679
ggi	16680
tés	16681
稱	16682
すると	16683
elles	16684
టు	16685
iana	16686
开展	16687
▁ಸುದ್ದಿ	16688
ovanje	16689
▁mul	16690
▁nàng	16691
▁Donald	16692
ОН	16693
niku	16694
▁Nå	16695
խ	16696
อะไร	16697
じ	16698
▁turist	16699
▁бъдат	16700
▁daerah	16701
▁celor	16702
▁duen	16703
享受	16704
ீ	16705
▁Dari	16706
▁produktu	16707
പ്പ്	16708
-7	16709
另外	16710
spec	16711
▁glo	16712
off	16713
▁merk	16714
ydi	16715
▁každý	16716
▁tất	16717
▁ము	16718
▁hjem	16719
isko	16720
▁сол	16721
ฟรี	16722
bt	16723
руч	16724
▁진	16725
▁Ча	16726
रु	16727
▁casos	16728
▁mooi	16729
▁bana	16730
销售	16731
yti	16732
mik	16733
Ti	16734
cula	16735
ంత	16736
Za	16737
▁ಚಿತ್ರ	16738
▁бел	16739
хме	16740
vita	16741
▁אך	16742
ໄປ	16743
▁deixar	16744
سو	16745
▁розвитку	16746
נד	16747
▁มา	16748
tisk	16749
▁result	16750
system	16751
ถ	16752
▁Российской	16753
ගන්න	16754
▁స్	16755
▁ամեն	16756
▁varia	16757
▁త	16758
▁probleme	16759
лива	16760
▁grunn	16761
oon	16762
uer	16763
ാന	16764
als	16765
▁kein	16766
▁jelas	16767
▁մեկ	16768
▁vä	16769
▁فلم	16770
▁Miss	16771
▁această	16772
▁همچنین	16773
▁đời	16774
▁neve	16775
▁kä	16776
▁Line	16777
▁ап	16778
ებზე	16779
▁לכל	16780
▁thuộc	16781
னர்	16782
రే	16783
▁fél	16784
▁Qa	16785
▁informasi	16786
erende	16787
▁контрол	16788
▁justo	16789
▁मिल	16790
▁chiến	16791
▁since	16792
टर	16793
▁sulle	16794
iksi	16795
ထ	16796
cent	16797
▁Ту	16798
▁største	16799
▁పార్టీ	16800
யே	16801
ዱ	16802
סט	16803
▁שם	16804
▁രൂപ	16805
价格	16806
▁tah	16807
▁zgod	16808
արկ	16809
▁dro	16810
▁ovo	16811
ики	16812
▁ابن	16813
ټ	16814
▁хар	16815
▁مقابل	16816
▁SU	16817
sida	16818
▁Jest	16819
cur	16820
فل	16821
▁दा	16822
зер	16823
તો	16824
šli	16825
вид	16826
其實	16827
hé	16828
▁siste	16829
شا	16830
uso	16831
▁Бе	16832
ировать	16833
▁رہی	16834
▁करना	16835
ole	16836
▁양	16837
▁сами	16838
▁market	16839
iter	16840
▁ของ	16841
▁પછી	16842
▁Region	16843
▁Ende	16844
▁vui	16845
▁почти	16846
רים	16847
▁Santiago	16848
▁ਨ	16849
不可	16850
よく	16851
tage	16852
ät	16853
▁sna	16854
집	16855
▁İlham	16856
gie	16857
дэг	16858
▁xác	16859
hely	16860
▁giver	16861
▁tuleb	16862
▁ያለ	16863
ଭ	16864
sser	16865
▁मो	16866
▁religi	16867
бри	16868
лата	16869
עד	16870
รี	16871
▁प्रयोग	16872
▁سیاست	16873
션	16874
▁१९	16875
▁oz	16876
▁inspir	16877
כו	16878
เท	16879
đa	16880
▁sadece	16881
Bi	16882
etta	16883
▁آهنگ	16884
▁AP	16885
▁प्रा	16886
恩	16887
▁שני	16888
ลิ	16889
▁តែ	16890
கி	16891
▁тэр	16892
▁alternativ	16893
▁जाता	16894
sled	16895
▁ನನ್ನ	16896
īga	16897
skoj	16898
▁rond	16899
▁според	16900
سن	16901
देखि	16902
▁ወይም	16903
τή	16904
ումը	16905
▁Stockholm	16906
▁실	16907
▁সা	16908
ряд	16909
سم	16910
▁чита	16911
▁views	16912
▁samen	16913
ዶ	16914
▁Pur	16915
▁consider	16916
pala	16917
chten	16918
▁això	16919
roj	16920
▁madh	16921
▁đâu	16922
▁Maa	16923
äl	16924
děl	16925
য়ে	16926
▁بے	16927
мын	16928
▁tincidunt	16929
▁Raj	16930
ували	16931
טער	16932
▁Abdul	16933
▁Public	16934
เปิด	16935
››	16936
▁ارسال	16937
▁vra	16938
teľ	16939
▁done	16940
▁lid	16941
ซ	16942
lán	16943
▁بیا	16944
▁बैंक	16945
▁دون	16946
▁عليها	16947
她的	16948
▁szám	16949
▁обо	16950
▁।।	16951
چە	16952
▁tjetër	16953
▁వార్తలు	16954
亮	16955
▁izany	16956
ూ	16957
▁परि	16958
▁fai	16959
май	16960
▁сред	16961
ава	16962
เอ	16963
▁σήμερα	16964
▁Gul	16965
▁tieto	16966
▁nuwe	16967
▁nisu	16968
▁duy	16969
▁LI	16970
年的	16971
ವರು	16972
▁့	16973
っ	16974
сер	16975
▁היו	16976
rab	16977
ෑ	16978
▁bilgi	16979
▁програма	16980
▁experience	16981
▁előtt	16982
期間	16983
সা	16984
プ	16985
▁KI	16986
▁ligne	16987
▁όχι	16988
atur	16989
▁şu	16990
感じ	16991
▁ST	16992
▁enige	16993
دم	16994
▁Part	16995
תו	16996
办	16997
▁различни	16998
CH	16999
šie	17000
電影	17001
▁գ	17002
іл	17003
▁další	17004
▁kullan	17005
▁Most	17006
ches	17007
οπ	17008
▁کس	17009
领域	17010
ահ	17011
ыр	17012
▁clientes	17013
LO	17014
▁संघ	17015
▁نرم	17016
מל	17017
▁usta	17018
▁niveau	17019
mény	17020
Та	17021
▁maz	17022
▁innych	17023
▁Portal	17024
海外	17025
▁ಗೆ	17026
▁ఉంది	17027
anan	17028
lás	17029
களுக்கு	17030
ং	17031
chan	17032
▁ой	17033
▁ایس	17034
▁हुई	17035
ところ	17036
▁casi	17037
▁Karl	17038
▁nghiệm	17039
▁Ста	17040
▁інших	17041
▁hoved	17042
jun	17043
၍	17044
▁ניתן	17045
ต่างๆ	17046
▁estava	17047
Die	17048
▁गा	17049
кла	17050
▁PE	17051
vær	17052
▁χωρίς	17053
▁Þ	17054
▁modul	17055
ந	17056
ใส่	17057
製	17058
▁Кор	17059
▁मराठी	17060
师	17061
ዩ	17062
সি	17063
飯店	17064
▁Cur	17065
▁ас	17066
Ga	17067
▁sillä	17068
▁preto	17069
▁sest	17070
▁Somaliland	17071
通常	17072
რჩ	17073
▁bastante	17074
▁kn	17075
liq	17076
▁ұ	17077
托	17078
▁vedno	17079
▁ڪنهن	17080
▁št	17081
▁ط	17082
▁ndër	17083
wir	17084
的问题	17085
gui	17086
▁ذ	17087
र्स	17088
sies	17089
ivat	17090
▁۲	17091
▁घटना	17092
മ്മ	17093
nite	17094
▁avait	17095
နေ	17096
▁болот	17097
▁stav	17098
▁मृत्यु	17099
ています	17100
▁série	17101
čia	17102
mål	17103
种	17104
bab	17105
▁With	17106
▁onu	17107
▁Điều	17108
▁câu	17109
▁sad	17110
ulu	17111
acha	17112
زا	17113
ながら	17114
▁khiến	17115
▁disc	17116
gara	17117
発	17118
▁Road	17119
▁miatt	17120
apos	17121
▁přes	17122
ffa	17123
▁τι	17124
▁ə	17125
▁Sama	17126
而是	17127
▁vali	17128
čan	17129
ներն	17130
rati	17131
▁sola	17132
ขอ	17133
ент	17134
ekî	17135
ဂ	17136
start	17137
▁narod	17138
▁ई	17139
ส่วน	17140
жан	17141
▁gew	17142
▁lek	17143
kod	17144
▁শ	17145
良い	17146
ès	17147
▁fiz	17148
▁Aga	17149
▁meio	17150
▁José	17151
peri	17152
▁kah	17153
控	17154
▁room	17155
▁Edi	17156
нес	17157
▁Ett	17158
▁vale	17159
בל	17160
ష	17161
▁ضمن	17162
▁rang	17163
▁record	17164
ព	17165
▁Pay	17166
▁mynd	17167
83	17168
▁cando	17169
▁Power	17170
ינו	17171
▁ega	17172
啦	17173
▁mani	17174
▁tačiau	17175
▁евро	17176
▁luft	17177
族	17178
▁plo	17179
▁mesta	17180
мар	17181
▁peso	17182
较	17183
▁جائیں	17184
▁тым	17185
▁iyong	17186
لت	17187
ירה	17188
▁Bild	17189
▁לע	17190
మ్మ	17191
▁Abu	17192
為了	17193
什麼	17194
ả	17195
▁dolore	17196
▁זאת	17197
▁py	17198
IM	17199
AZ	17200
▁گھر	17201
▁grave	17202
▁access	17203
▁kos	17204
ંગ	17205
奥	17206
▁blowjob	17207
▁Beliau	17208
▁Kurd	17209
▁багато	17210
كا	17211
▁каза	17212
ລ	17213
ията	17214
endi	17215
▁lloc	17216
▁své	17217
เอา	17218
达到	17219
劇	17220
▁Ја	17221
kirina	17222
▁Juni	17223
▁ну	17224
စ္	17225
▁мэдээ	17226
kaa	17227
▁internacional	17228
▁филм	17229
▁schnell	17230
ቻ	17231
▁vede	17232
ház	17233
▁BI	17234
ଚ	17235
按照	17236
ປ	17237
▁Mara	17238
ท่าน	17239
網路	17240
дө	17241
ですね	17242
▁opis	17243
sť	17244
vest	17245
故事	17246
▁času	17247
▁اسے	17248
▁คน	17249
▁spille	17250
सु	17251
ดา	17252
គ	17253
deki	17254
PR	17255
tö	17256
▁þeirra	17257
▁verde	17258
ίζει	17259
нее	17260
ћа	17261
▁three	17262
▁viena	17263
▁tava	17264
▁money	17265
▁leva	17266
ρω	17267
פו	17268
▁depan	17269
ζ	17270
▁હતા	17271
ён	17272
เจ้า	17273
▁UK	17274
▁koma	17275
▁nové	17276
тки	17277
tív	17278
▁وهي	17279
іі	17280
▁86	17281
साठी	17282
▁instal	17283
▁gdzie	17284
лт	17285
▁أحد	17286
▁3000	17287
▁הע	17288
களின்	17289
▁निर्णय	17290
น่า	17291
▁senti	17292
วา	17293
▁temperatura	17294
▁materia	17295
▁bizim	17296
▁הר	17297
▁njih	17298
▁före	17299
ους	17300
▁helst	17301
▁donne	17302
▁ndaj	17303
CI	17304
▁hea	17305
▁clar	17306
meni	17307
▁уште	17308
▁recent	17309
ונג	17310
▁particular	17311
נית	17312
▁facer	17313
▁oyna	17314
▁nasıl	17315
▁образ	17316
▁जि	17317
ோ	17318
▁festa	17319
예	17320
▁Gud	17321
ალი	17322
lės	17323
nil	17324
rina	17325
▁nev	17326
▁oper	17327
▁тууралуу	17328
рок	17329
ющих	17330
08.	17331
pti	17332
്യ	17333
▁വര	17334
	17335
low	17336
▁သူ	17337
กา	17338
▁tämä	17339
▁contro	17340
▁objekt	17341
رز	17342
ชีวิต	17343
▁genau	17344
▁Той	17345
stat	17346
▁предлага	17347
▁Nik	17348
uu	17349
▁մ	17350
形成	17351
సా	17352
рын	17353
▁Hat	17354
бан	17355
▁mỗi	17356
/4	17357
▁lig	17358
▁دے	17359
▁मुंबई	17360
▁kunde	17361
▁beter	17362
▁cứ	17363
१	17364
part	17365
▁level	17366
▁Show	17367
▁using	17368
ເ	17369
▁Тур	17370
▁էին	17371
ගත	17372
▁මහතා	17373
▁sicher	17374
▁आपल्या	17375
-8	17376
ение	17377
▁says	17378
jek	17379
▁وڃي	17380
▁жеке	17381
▁સા	17382
▁nito	17383
adores	17384
樓	17385
▁tjera	17386
ڊ	17387
මින්	17388
ром	17389
▁allen	17390
▁života	17391
цыя	17392
▁último	17393
▁jangan	17394
ետ	17395
▁عوام	17396
▁facut	17397
BO	17398
utan	17399
▁eman	17400
ැ	17401
वार	17402
▁서비스	17403
▁enam	17404
цій	17405
▁mencari	17406
작	17407
▁ISO	17408
▁eens	17409
לא	17410
追	17411
▁яких	17412
▁forskellige	17413
чат	17414
▁सभी	17415
▁boj	17416
zbek	17417
▁차	17418
kte	17419
▁tyd	17420
후	17421
ੱ	17422
isce	17423
വ്	17424
ления	17425
▁मला	17426
ば	17427
▁LE	17428
▁Ši	17429
▁우리	17430
▁night	17431
▁tienen	17432
स्ट	17433
▁Ро	17434
▁tamen	17435
▁Við	17436
▁duten	17437
▁confi	17438
▁persones	17439
غل	17440
مى	17441
▁тот	17442
▁Mem	17443
スト	17444
▁לת	17445
▁79	17446
fs	17447
นัก	17448
ското	17449
▁ନି	17450
τικό	17451
▁precisa	17452
▁گر	17453
yg	17454
বা	17455
ナ	17456
sad	17457
▁valsts	17458
ပါတယ္။	17459
▁مزید	17460
▁93	17461
フ	17462
lf	17463
angkan	17464
tut	17465
▁Mata	17466
▁conserva	17467
vje	17468
ź	17469
тися	17470
ья	17471
▁cual	17472
▁sexy	17473
▁succes	17474
▁limit	17475
▁berlaku	17476
飞	17477
▁yılında	17478
▁cit	17479
▁13,	17480
IA	17481
ovou	17482
▁chị	17483
▁केले	17484
ği	17485
▁trá	17486
PP	17487
歲	17488
date	17489
▁Ach	17490
质	17491
▁ор	17492
▁САД	17493
קו	17494
▁विभाग	17495
▁specialist	17496
▁sorte	17497
▁moto	17498
дік	17499
▁ہمارے	17500
▁tỉnh	17501
▁немесе	17502
▁ഹ	17503
▁eum	17504
owie	17505
▁hafi	17506
DI	17507
▁habari	17508
▁ਜੋ	17509
▁гол	17510
▁wäre	17511
изм	17512
EM	17513
ions	17514
σεις	17515
▁برابر	17516
ക്ഷ	17517
▁ສ	17518
▁fata	17519
▁ghi	17520
્સ	17521
Տ	17522
▁Papa	17523
овых	17524
פים	17525
年度	17526
дж	17527
ਥ	17528
anja	17529
ുകൾ	17530
ਲੇ	17531
▁nær	17532
▁Tema	17533
▁მხოლოდ	17534
▁nosa	17535
āk	17536
אן	17537
▁grado	17538
類	17539
iwa	17540
▁چی	17541
▁avere	17542
▁Република	17543
▁chung	17544
▁volna	17545
කා	17546
นํา	17547
ដែល	17548
lerinde	17549
▁[1]	17550
▁1500	17551
▁podle	17552
ச்ச	17553
▁đàn	17554
qué	17555
▁هست	17556
▁قسم	17557
ინ	17558
▁Opp	17559
สาว	17560
ungs	17561
gres	17562
่ง	17563
valt	17564
不會	17565
ști	17566
mään	17567
လဲ	17568
▁thought	17569
▁Maj	17570
▁systém	17571
ന്ന	17572
іс	17573
ox	17574
ским	17575
uur	17576
▁certo	17577
▁islam	17578
▁ricerca	17579
▁terdapat	17580
▁ಮಾಡಿ	17581
▁questions	17582
леп	17583
創	17584
▁дарга	17585
▁କି	17586
▁ราคา	17587
▁diesen	17588
▁পর	17589
▁Mam	17590
klo	17591
▁ära	17592
ญ	17593
▁seria	17594
komst	17595
▁3.0	17596
▁Роз	17597
▁معلومات	17598
免	17599
▁minder	17600
िएको	17601
▁مدیریت	17602
ndar	17603
ації	17604
où	17605
ingar	17606
▁Zá	17607
▁ដើម្បី	17608
सि	17609
ED	17610
▁gael	17611
▁וי	17612
台北	17613
黃	17614
tea	17615
▁mengatakan	17616
ети	17617
▁ingkang	17618
调	17619
▁bax	17620
園	17621
▁vilket	17622
があります	17623
▁fut	17624
▁الذين	17625
▁큰	17626
▁Қ	17627
ミ	17628
▁Monte	17629
▁Labels	17630
▁स्थानीय	17631
UT	17632
nél	17633
druk	17634
」。	17635
▁bly	17636
lka	17637
▁ـ	17638
不到	17639
▁μέχρι	17640
▁стол	17641
تن	17642
bun	17643
yje	17644
יע	17645
▁sólo	17646
Fa	17647
pek	17648
▁akar	17649
▁Joan	17650
▁плат	17651
▁Ford	17652
▁നിര്	17653
▁Chính	17654
▁phân	17655
▁chr	17656
▁Аз	17657
ılan	17658
▁15-	17659
▁tend	17660
યા	17661
▁arti	17662
ሕ	17663
▁mix	17664
▁kli	17665
▁restaurant	17666
▁Само	17667
rma	17668
▁ever	17669
اری	17670
▁จ	17671
▁AT	17672
ಯೇ	17673
ପି	17674
лон	17675
×	17676
▁시작	17677
more	17678
ಪ್ಪ	17679
ቴ	17680
нал	17681
▁einige	17682
ότητα	17683
▁sabe	17684
вања	17685
▁Win	17686
нице	17687
▁sexual	17688
▁Sky	17689
▁reform	17690
ทอง	17691
ാത്ത	17692
▁jums	17693
▁આપ	17694
▁takie	17695
程度	17696
lau	17697
ְ	17698
▁فا	17699
▁samma	17700
ಪಿ	17701
▁цар	17702
▁Liga	17703
ged	17704
gam	17705
eurs	17706
容	17707
க்கி	17708
بو	17709
▁لك	17710
▁olsun	17711
др	17712
KI	17713
каў	17714
▁SC	17715
▁عرب	17716
文件	17717
▁😃	17718
▁mak	17719
پا	17720
▁between	17721
▁traballo	17722
▁happy	17723
▁nós	17724
▁مست	17725
Du	17726
1)	17727
ほど	17728
参与	17729
甲	17730
ትን	17731
▁zim	17732
▁ቀን	17733
▁carte	17734
專業	17735
▁medzi	17736
依	17737
vā	17738
▁30-	17739
ész	17740
▁חי	17741
停	17742
▁Pala	17743
▁může	17744
▁dre	17745
▁تت	17746
dav	17747
פס	17748
▁vực	17749
tsu	17750
▁miesto	17751
▁mise	17752
▁wszystko	17753
▁JE	17754
決定	17755
IK	17756
ിക	17757
ATA	17758
RU	17759
▁सकता	17760
kita	17761
•	17762
▁gott	17763
▁гана	17764
▁سازی	17765
▁depois	17766
▁dễ	17767
事情	17768
▁கோ	17769
▁afin	17770
mara	17771
▁डि	17772
▁đúng	17773
▁چین	17774
ික	17775
各種	17776
NET	17777
ଷ	17778
▁Sho	17779
IO	17780
isiin	17781
تين	17782
▁sentido	17783
ėti	17784
▁نسبت	17785
Ма	17786
確認	17787
▁regel	17788
▁ನೀಡ	17789
▁ვა	17790
çu	17791
▁мед	17792
otto	17793
мор	17794
לת	17795
kkel	17796
īgu	17797
▁شوی	17798
密	17799
רה	17800
하면	17801
ແລະ	17802
較	17803
ście	17804
▁hộ	17805
▁קו	17806
อร์	17807
▁obliga	17808
▁බ	17809
ಿದ	17810
▁edilməsi	17811
▁offre	17812
▁иска	17813
Mail	17814
ಯಿಂದ	17815
ís	17816
ossa	17817
tib	17818
▁Frank	17819
heten	17820
▁tomar	17821
▁또는	17822
▁prac	17823
▁גר	17824
▁zamanda	17825
ඩි	17826
ята	17827
▁cảnh	17828
ћ	17829
▁তা	17830
вин	17831
▁добра	17832
▁seksi	17833
ရန်	17834
үүд	17835
▁ц	17836
▁बना	17837
▁FOTO	17838
▁Jūs	17839
itan	17840
▁لیگ	17841
ხვ	17842
▁например	17843
委	17844
▁Му	17845
▁19,	17846
▁زن	17847
▁Dé	17848
წყ	17849
▁предмет	17850
▁Съ	17851
ター	17852
▁89	17853
CP	17854
ږ	17855
▁Скопје	17856
▁(10)	17857
▁dưới	17858
▁Lind	17859
▁ją	17860
ឆ្នាំ	17861
들의	17862
▁gun	17863
▁წელს	17864
АР	17865
介绍	17866
iny	17867
▁innlegg	17868
របស់	17869
бол	17870
▁זיין	17871
dyn	17872
▁따라	17873
勝	17874
▁partie	17875
▁pública	17876
īgā	17877
▁yksi	17878
▁בני	17879
▁культур	17880
້	17881
▁SK	17882
fort	17883
▁ರ	17884
medi	17885
asti	17886
・・・	17887
▁ü	17888
▁ihn	17889
ವರ	17890
কার	17891
性的	17892
▁Dio	17893
▁Escort	17894
▁болох	17895
▁образом	17896
▁իրենց	17897
▁Seri	17898
▁აქვს	17899
关注	17900
▁dad	17901
сць	17902
Go	17903
▁mort	17904
▁mūsu	17905
▁Cultura	17906
雖然	17907
တို႔	17908
▁bentuk	17909
▁були	17910
ಿತ	17911
ष्ट	17912
▁לנו	17913
▁implica	17914
▁Personal	17915
الم	17916
▁yapı	17917
▁dago	17918
ىي	17919
松	17920
▁справ	17921
▁ນີ້	17922
▁pali	17923
essä	17924
▁JavaScript	17925
ស្	17926
ਦੀ	17927
fec	17928
stellen	17929
▁ስ	17930
як	17931
▁second	17932
HO	17933
αγ	17934
▁którym	17935
പ്ര	17936
▁합니다	17937
tionen	17938
▁الأول	17939
食品	17940
▁بحث	17941
kî	17942
acja	17943
уп	17944
▁situación	17945
▁mad	17946
▁ŝi	17947
▁දෙ	17948
▁ਪ੍ਰ	17949
iški	17950
▁glede	17951
▁viss	17952
▁יום	17953
teli	17954
▁Washington	17955
弱	17956
rate	17957
▁هئا	17958
伤	17959
▁behov	17960
▁saját	17961
堂	17962
들은	17963
▁khí	17964
mol	17965
▁(8	17966
▁hoje	17967
нае	17968
▁Läs	17969
▁chce	17970
ನೇ	17971
▁Xunta	17972
供	17973
τρ	17974
limi	17975
▁luni	17976
رب	17977
eres	17978
▁دوره	17979
▁چون	17980
ជ	17981
▁ubi	17982
▁‘‘	17983
▁மா	17984
▁Tie	17985
▁hospital	17986
▁iPad	17987
lý	17988
无法	17989
oir	17990
tle	17991
öm	17992
▁недо	17993
▁проблема	17994
gé	17995
ides	17996
▁guide	17997
▁màu	17998
ович	17999
有效	18000
▁usar	18001
▁നല്ല	18002
▁prendre	18003
▁منذ	18004
ชม	18005
▁ក	18006
团	18007
▁fé	18008
などの	18009
▁चि	18010
既	18011
▁igra	18012
န်	18013
▁wer	18014
ujemy	18015
▁става	18016
▁रा	18017
gabe	18018
ggio	18019
▁ahol	18020
▁città	18021
▁admin	18022
mma	18023
nější	18024
▁miss	18025
flu	18026
GI	18027
▁پایان	18028
▁пара	18029
▁kto	18030
itus	18031
▁Chat	18032
hala	18033
ኮ	18034
▁trả	18035
▁форм	18036
ဘ	18037
▁παρά	18038
ejo	18039
иш	18040
▁قوم	18041
ილ	18042
vs	18043
DER	18044
▁informasjon	18045
▁gặp	18046
▁дітей	18047
ส์	18048
▁nghe	18049
▁jamais	18050
▁chú	18051
ყ	18052
▁комп	18053
▁bheith	18054
stein	18055
▁yapılan	18056
▁NU	18057
▁yê	18058
เม	18059
ούμε	18060
قة	18061
گو	18062
▁søker	18063
bara	18064
.01.	18065
rede	18066
బ్	18067
ភាព	18068
čiai	18069
iks	18070
mız	18071
令人	18072
▁შ	18073
ટી	18074
▁مگر	18075
になります	18076
vend	18077
サ	18078
▁रु	18079
▁간	18080
▁сот	18081
тарды	18082
▁قىلىش	18083
▁ബി	18084
ଂ	18085
▁geldi	18086
▁vệ	18087
ਵਾ	18088
▁కొత్త	18089
▁оқу	18090
▁cet	18091
nimo	18092
tę	18093
▁egun	18094
▁hecho	18095
▁daga	18096
skab	18097
▁rokov	18098
▁truyền	18099
▁таа	18100
nó	18101
▁средств	18102
▁projekta	18103
▁atque	18104
英国	18105
ILI	18106
▁арқылы	18107
rif	18108
اح	18109
▁Respublikasının	18110
学院	18111
▁İl	18112
/3	18113
によって	18114
aeth	18115
íte	18116
yev	18117
▁Ly	18118
したい	18119
▁ថ្ងៃ	18120
▁numai	18121
▁році	18122
சு	18123
tse	18124
▁بدن	18125
дов	18126
▁이용	18127
증	18128
격	18129
Ы	18130
ਕਾ	18131
▁በሚ	18132
▁דו	18133
▁ก็	18134
▁имеет	18135
राज	18136
Χ	18137
โอ	18138
▁360	18139
ዲ	18140
▁Τ	18141
▁방	18142
гра	18143
Pe	18144
▁lấy	18145
▁Oktober	18146
ră	18147
SM	18148
тон	18149
▁regional	18150
▁code	18151
▁inca	18152
▁plant	18153
▁kommentar	18154
▁своите	18155
લો	18156
▁túl	18157
▁click	18158
時代	18159
یوں	18160
▁აქ	18161
▁වල	18162
▁ahaa	18163
▁papel	18164
ној	18165
▁ഏ	18166
יך	18167
▁szó	18168
лов	18169
هما	18170
ျ	18171
▁acordo	18172
▁يتم	18173
▁què	18174
ਿਆਂ	18175
tong	18176
dą	18177
▁материал	18178
▁luật	18179
▁tượng	18180
的发展	18181
▁لوگوں	18182
ських	18183
▁७	18184
بة	18185
▁Dra	18186
散	18187
dė	18188
▁اے	18189
uc	18190
▁sehen	18191
▁సా	18192
▁ಹೊಸ	18193
▁ذات	18194
▁ПО	18195
▁cât	18196
67	18197
્યો	18198
փ	18199
ച	18200
еш	18201
ruh	18202
▁marzo	18203
▁ڪا	18204
▁osoby	18205
द्	18206
bruk	18207
ലാ	18208
imh	18209
lát	18210
tant	18211
вој	18212
▁الب	18213
▁ගෙන	18214
▁audio	18215
极	18216
▁Gold	18217
▁Jakarta	18218
▁zuten	18219
威	18220
▁div	18221
▁Centre	18222
вър	18223
▁करता	18224
▁מען	18225
▁Len	18226
▁chance	18227
puol	18228
кри	18229
▁ам	18230
▁basis	18231
▁பல	18232
▁đa	18233
ffer	18234
daan	18235
мыз	18236
▁June	18237
▁ເ	18238
այի	18239
čku	18240
mens	18241
/2018	18242
▁9-	18243
work	18244
кий	18245
▁aceste	18246
▁należy	18247
塔	18248
▁rezerv	18249
צר	18250
овете	18251
acaq	18252
stus	18253
▁illetve	18254
▁emo	18255
▁సి	18256
lín	18257
ටි	18258
▁cố	18259
වු	18260
ിനെ	18261
獲得	18262
▁कुनै	18263
▁contract	18264
▁Ora	18265
fte	18266
μι	18267
▁ਆਪਣੇ	18268
лаг	18269
▁طراحی	18270
escu	18271
▁વધુ	18272
לים	18273
▁erst	18274
jām	18275
▁house	18276
新聞	18277
▁klein	18278
בו	18279
rende	18280
вати	18281
эм	18282
ынын	18283
лоо	18284
▁lakini	18285
▁مال	18286
▁Iš	18287
Ю	18288
ვით	18289
人士	18290
▁coś	18291
超过	18292
▁теле	18293
▁طريق	18294
▁təhsil	18295
ائر	18296
▁dù	18297
iera	18298
uze	18299
▁kontroll	18300
▁басқа	18301
toja	18302
▁TP	18303
rro	18304
▁Fest	18305
▁لأ	18306
▁apoi	18307
▁najbolj	18308
ሸ	18309
น้อย	18310
▁nəfər	18311
landı	18312
eiros	18313
eras	18314
▁номер	18315
▁estamos	18316
进一步	18317
一点	18318
▁Municipal	18319
盛	18320
工具	18321
▁råd	18322
ပြ	18323
▁ગુજરાતી	18324
推出	18325
▁agama	18326
▁ocupa	18327
lerden	18328
mbu	18329
▁מס	18330
zul	18331
遇到	18332
▁ambayo	18333
▁кое	18334
ĝo	18335
▁কা	18336
hm	18337
▁הפ	18338
zzo	18339
וב	18340
▁allem	18341
调查	18342
▁Sto	18343
▁fol	18344
old	18345
më	18346
cla	18347
▁profit	18348
▁तु	18349
好的	18350
▁900	18351
▁нешто	18352
▁secondo	18353
류	18354
ሲ	18355
▁എല്ലാ	18356
fanya	18357
▁szak	18358
вест	18359
έρ	18360
▁Tä	18361
▁pá	18362
▁Buch	18363
вам	18364
▁చేసిన	18365
▁દ	18366
▁מר	18367
▁cổ	18368
iyor	18369
▁dort	18370
▁atra	18371
ью	18372
▁tās	18373
▁October	18374
▁GPS	18375
▁cik	18376
▁турган	18377
ազ	18378
สม	18379
лийн	18380
▁holde	18381
mų	18382
kira	18383
▁saan	18384
▁Kumar	18385
最大	18386
▁países	18387
δε	18388
▁max	18389
▁ჩემი	18390
haus	18391
stil	18392
▁semper	18393
▁faktisk	18394
▁toán	18395
▁agosto	18396
mot	18397
▁kula	18398
传	18399
uş	18400
▁हुन्	18401
sının	18402
dic	18403
jah	18404
▁aver	18405
בן	18406
▁થઈ	18407
ške	18408
UP	18409
▁vast	18410
一切	18411
▁დღეს	18412
▁træ	18413
▁bonne	18414
טע	18415
ڪي	18416
▁мас	18417
這樣	18418
ям	18419
እ	18420
oğlu	18421
valo	18422
ଲ୍	18423
擁有	18424
tui	18425
▁Што	18426
يرة	18427
ద్ద	18428
▁төр	18429
▁১	18430
DU	18431
▁càng	18432
▁reserva	18433
こ	18434
utta	18435
▁Ré	18436
iba	18437
▁گهر	18438
անց	18439
▁intra	18440
ირ	18441
indu	18442
▁Qo	18443
Nu	18444
▁توهان	18445
jąc	18446
靠	18447
politik	18448
▁Че	18449
▁fint	18450
▁ahora	18451
ബ്	18452
圈	18453
вет	18454
имо	18455
▁tinh	18456
▁ഇന്ത്യ	18457
▁کابل	18458
тыр	18459
ල්ල	18460
ntu	18461
εία	18462
▁davlat	18463
▁minutos	18464
▁Жа	18465
▁gift	18466
▁բան	18467
Er	18468
▁गते	18469
▁którzy	18470
▁CE	18471
భ	18472
▁prodotti	18473
라는	18474
lerinden	18475
ելի	18476
▁முதல்	18477
▁erg	18478
▁gjen	18479
▁اثر	18480
▁Island	18481
iyan	18482
▁Serikali	18483
suk	18484
▁rud	18485
▁الز	18486
يب	18487
nnen	18488
▁можуть	18489
րի	18490
▁diện	18491
bord	18492
▁politi	18493
▁வர	18494
喜	18495
画	18496
▁berri	18497
လည္း	18498
▁error	18499
▁davam	18500
賽	18501
▁სულ	18502
突然	18503
2-	18504
▁yahay	18505
īt	18506
▁class	18507
වක්	18508
▁πλ	18509
▁стоит	18510
▁imi	18511
рап	18512
との	18513
▁stres	18514
యు	18515
▁mất	18516
▁ciutat	18517
▁башка	18518
能夠	18519
▁няколко	18520
▁ቢ	18521
▁synes	18522
aad	18523
ത്ര	18524
ලු	18525
▁lume	18526
aŭ	18527
▁жизнь	18528
chte	18529
▁Hij	18530
▁Аб	18531
▁केली	18532
อา	18533
ових	18534
▁naka	18535
▁כבר	18536
For	18537
พร้อม	18538
ङ	18539
lö	18540
▁કરવા	18541
离	18542
▁Civil	18543
HT	18544
▁улс	18545
バ	18546
▁օր	18547
dev	18548
冰	18549
▁რე	18550
▁ari	18551
▁प्रश्न	18552
מר	18553
tani	18554
▁вэ	18555
▁jonka	18556
dest	18557
añ	18558
▁રીતે	18559
ങ്ങള	18560
▁gamle	18561
دې	18562
სთან	18563
▁فن	18564
नु	18565
▁বাংলাদেশ	18566
▁എം	18567
▁þeir	18568
▁എസ്	18569
ည	18570
備	18571
ணி	18572
▁hukum	18573
▁vähän	18574
▁använda	18575
▁नगर	18576
▁دوم	18577
▁hemen	18578
ძე	18579
▁것은	18580
▁škol	18581
ుల	18582
▁פֿאַר	18583
uste	18584
▁ຄົນ	18585
ጎ	18586
▁mapa	18587
▁consum	18588
až	18589
▁спа	18590
▁vist	18591
▁1988	18592
▁ഏറ്റവും	18593
▁Лі	18594
▁diversi	18595
▁valamint	18596
▁inden	18597
▁కానీ	18598
ப்பட்ட	18599
ज़	18600
dica	18601
▁unos	18602
理由	18603
▁ඔය	18604
▁mellett	18605
prot	18606
ൊരു	18607
▁1945	18608
▁süre	18609
示	18610
▁oblasti	18611
dok	18612
安排	18613
▁termin	18614
▁fotograf	18615
layan	18616
位置	18617
▁امر	18618
▁Thông	18619
▁хо	18620
▁Good	18621
▁Note	18622
äh	18623
容易	18624
▁parasito	18625
▁මහ	18626
ຢູ່	18627
方案	18628
οντας	18629
מת	18630
音樂	18631
▁exemple	18632
рд	18633
▁सुरु	18634
资金	18635
▁આવે	18636
▁стала	18637
dari	18638
સ્ટ	18639
יג	18640
▁වැඩි	18641
▁lewe	18642
đ	18643
▁welche	18644
▁offer	18645
视	18646
▁trực	18647
Ø	18648
▁Quando	18649
錢	18650
ghi	18651
▁solid	18652
▁Jeśli	18653
ье	18654
вой	18655
teng	18656
▁tir	18657
▁gach	18658
▁Mungu	18659
ква	18660
ілі	18661
ुन	18662
▁două	18663
▁nincs	18664
內容	18665
sau	18666
ಯು	18667
ాను	18668
ությունների	18669
▁нова	18670
▁ав	18671
▁amikor	18672
▁né	18673
领导	18674
▁robi	18675
▁cin	18676
境	18677
▁komplet	18678
▁ول	18679
▁جاتا	18680
▁tine	18681
สวย	18682
립	18683
ائل	18684
คู่	18685
egy	18686
rü	18687
čný	18688
oji	18689
▁θε	18690
▁presentar	18691
▁매	18692
키	18693
人は	18694
pic	18695
▁objetivo	18696
နာ	18697
▁jejich	18698
▁comprar	18699
▁skole	18700
▁hizmet	18701
▁kilka	18702
保護	18703
ებ	18704
ांनी	18705
▁paggamot	18706
▁terbaik	18707
▁nuestros	18708
ologie	18709
▁گذشته	18710
тре	18711
ცა	18712
▁હું	18713
▁ung	18714
เรียน	18715
▁materiale	18716
▁ਕੀਤੀ	18717
▁яшчэ	18718
紙	18719
▁лице	18720
▁Iran	18721
ەت	18722
စု	18723
▁estaba	18724
▁klart	18725
لف	18726
▁vraiment	18727
▁lé	18728
ทําให้	18729
▁Ք	18730
▁власт	18731
迪	18732
▁Geld	18733
vn	18734
讲	18735
生命	18736
เพียง	18737
▁fle	18738
▁dello	18739
▁عبر	18740
uw	18741
▁गरे	18742
▁glu	18743
ଛନ୍ତି	18744
ଙ୍ଗ	18745
▁oleks	18746
▁bàn	18747
▁obras	18748
program	18749
ient	18750
▁बताए	18751
▁فل	18752
dó	18753
юць	18754
!»	18755
坚持	18756
ტე	18757
श्च	18758
▁tức	18759
▁яны	18760
րա	18761
чке	18762
▁His	18763
dega	18764
언	18765
▁pouvez	18766
▁Federal	18767
▁dəfə	18768
എ	18769
ctor	18770
ký	18771
వే	18772
▁rata	18773
▁ges	18774
▁smart	18775
介紹	18776
▁скоро	18777
ác	18778
▁നീ	18779
▁ঢাকা	18780
rite	18781
▁protest	18782
కీ	18783
▁stu	18784
▁onda	18785
▁ئى	18786
▁teha	18787
ghe	18788
▁وقال	18789
pai	18790
ποι	18791
▁provincia	18792
▁మె	18793
▁ευ	18794
▁kak	18795
ေအာင္	18796
▁dadka	18797
ելով	18798
▁Modern	18799
ായിരുന്നു	18800
▁डॉ	18801
▁wame	18802
vna	18803
डे	18804
டை	18805
ின்	18806
liyi	18807
ακ	18808
فق	18809
▁Bha	18810
▁representa	18811
并不	18812
▁King	18813
▁həm	18814
▁emas	18815
▁୨	18816
▁goede	18817
▁khoản	18818
merk	18819
ค่า	18820
рак	18821
▁believe	18822
ици	18823
ကုိ	18824
▁87	18825
▁Cat	18826
▁hún	18827
獎	18828
alka	18829
ៗ	18830
▁ref	18831
▁Đại	18832
ապ	18833
ԱՐ	18834
▁večer	18835
ização	18836
jur	18837
inį	18838
tala	18839
▁juta	18840
▁vinden	18841
ұ	18842
▁facile	18843
▁nổi	18844
баев	18845
фе	18846
▁Mereka	18847
培训	18848
▁adresa	18849
lanan	18850
ατ	18851
▁Like	18852
▁כש	18853
ууд	18854
▁bulate	18855
eja	18856
亲	18857
▁memper	18858
▁açık	18859
▁Kos	18860
▁lupa	18861
гля	18862
▁první	18863
tere	18864
▁olun	18865
ראה	18866
▁पहिलो	18867
▁ਵੱਲੋਂ	18868
▁کہنا	18869
δι	18870
▁abi	18871
▁син	18872
sang	18873
覺得	18874
zá	18875
auf	18876
▁Seite	18877
▁End	18878
▁modelo	18879
▁trecut	18880
▁չէ	18881
▁одно	18882
▁SH	18883
▁жив	18884
▁ezin	18885
▁ให้	18886
▁Î	18887
▁supra	18888
左	18889
▁செய்ய	18890
mmel	18891
▁verso	18892
▁altid	18893
▁माग	18894
▁מח	18895
▁കോ	18896
▁Master	18897
dama	18898
▁Wil	18899
▁زمین	18900
▁тре	18901
ік	18902
સી	18903
eza	18904
ക്കും	18905
▁מש	18906
看看	18907
spon	18908
ATI	18909
▁اسی	18910
▁próximo	18911
▁RS	18912
ദ്ധ	18913
ండ	18914
▁ഇത്	18915
▁стане	18916
schaft	18917
▁wannan	18918
▁Beach	18919
▁vise	18920
▁kalo	18921
抗	18922
sma	18923
▁ott	18924
▁today	18925
laki	18926
reiz	18927
メ	18928
fy	18929
▁terre	18930
▁hvert	18931
▁Få	18932
▁بندی	18933
urinn	18934
รูป	18935
彩	18936
▁แล้ว	18937
▁նրա	18938
")	18939
▁labor	18940
并且	18941
ျပီး	18942
جد	18943
କା	18944
▁kle	18945
▁texto	18946
方向	18947
▁správ	18948
89	18949
Բ	18950
▁års	18951
▁អ	18952
▁aunque	18953
работ	18954
▁Kali	18955
▁اشاره	18956
▁канал	18957
或是	18958
ვარ	18959
▁khai	18960
▁stad	18961
▁hala	18962
lərini	18963
င်း	18964
лес	18965
bere	18966
▁isku	18967
▁Gan	18968
▁своих	18969
▁Ол	18970
▁당	18971
▁dor	18972
▁chân	18973
чо	18974
▁ਫ	18975
過去	18976
▁centrum	18977
లేదు	18978
zone	18979
▁८	18980
▁viktig	18981
▁January	18982
▁cepat	18983
▁abbiamo	18984
▁commodo	18985
▁cyn	18986
രാ	18987
rung	18988
није	18989
▁Še	18990
▁\\	18991
रि	18992
▁áll	18993
一家	18994
▁hil	18995
奖	18996
▁مه	18997
▁precum	18998
▁бор	18999
▁nėra	19000
▁metod	19001
▁khoa	19002
түү	19003
▁compra	19004
eus	19005
yk	19006
▁sek	19007
пат	19008
ાઈ	19009
▁Syn	19010
▁срок	19011
▁Prima	19012
▁deixa	19013
▁drie	19014
结果	19015
თი	19016
āla	19017
▁dài	19018
消息	19019
▁кино	19020
њето	19021
сына	19022
ես	19023
▁דא	19024
▁norma	19025
▁Mə	19026
aires	19027
▁जारी	19028
▁اردو	19029
ọ	19030
▁تكون	19031
▁Xu	19032
lav	19033
▁տ	19034
▁ekspert	19035
▁количество	19036
▁yarat	19037
ของคุณ	19038
▁ন	19039
rid	19040
ಕ್ಷ	19041
شی	19042
▁satt	19043
▁Vse	19044
▁нэр	19045
เอง	19046
▁pomoc	19047
▁able	19048
最大的	19049
▁지역	19050
78	19051
▁USD	19052
▁stesso	19053
▁विषय	19054
▁Time	19055
▁अहिले	19056
amba	19057
ores	19058
▁Gli	19059
Or	19060
▁raibh	19061
гал	19062
רות	19063
▁pose	19064
运	19065
mam	19066
▁pense	19067
▁منها	19068
▁position	19069
▁ලංකා	19070
▁本	19071
無法	19072
▁შორის	19073
▁према	19074
ሁ	19075
▁wollen	19076
trice	19077
▁ಮು	19078
▁వే	19079
▁morgen	19080
▁agli	19081
▁dục	19082
▁možné	19083
וו	19084
▁party	19085
▁ramai	19086
블	19087
جه	19088
▁شر	19089
ък	19090
▁kanggo	19091
tama	19092
▁vuoden	19093
กิน	19094
▁bring	19095
▁sand	19096
▁HTML	19097
▁Nguyễn	19098
ۈپ	19099
▁12-	19100
夢	19101
▁Health	19102
▁henne	19103
▁ዘ	19104
▁ٽي	19105
▁Karena	19106
▁(7	19107
ель	19108
▁κάνει	19109
▁januar	19110
stop	19111
▁કરે	19112
Ү	19113
▁Times	19114
▁valg	19115
▁avez	19116
▁TripAdvisor	19117
▁kvar	19118
印	19119
ngo	19120
ներով	19121
tsa	19122
등	19123
▁ato	19124
▁որոնք	19125
▁शब्द	19126
▁שלנו	19127
▁Arab	19128
landi	19129
gado	19130
मो	19131
χα	19132
▁सय	19133
▁difícil	19134
ort	19135
▁ziren	19136
▁svenska	19137
▁mac	19138
скай	19139
▁स्व	19140
▁प्रहरी	19141
ကြီး	19142
▁Menteri	19143
▁aastal	19144
▁première	19145
▁Mol	19146
▁мог	19147
▁ਦੀਆਂ	19148
▁участие	19149
▁মে	19150
ĝ	19151
▁Dei	19152
▁شبکه	19153
▁ABŞ	19154
bina	19155
tsi	19156
ZE	19157
▁awal	19158
вор	19159
▁vždy	19160
▁laten	19161
▁mentre	19162
ኒ	19163
lais	19164
oda	19165
මු	19166
▁Người	19167
▁hitta	19168
▁ką	19169
▁људи	19170
▁berikut	19171
公共	19172
▁срещу	19173
▁Bli	19174
▁League	19175
▁kia	19176
▁matka	19177
▁cosas	19178
▁kopi	19179
ajiem	19180
▁लोग	19181
▁havas	19182
▁projet	19183
เสียง	19184
▁sob	19185
目标	19186
▁decir	19187
▁School	19188
サイト	19189
▁vak	19190
▁Tämä	19191
յի	19192
foto	19193
دة	19194
മു	19195
ālā	19196
▁drugih	19197
ρη	19198
лын	19199
ична	19200
mk	19201
▁አበባ	19202
▁సం	19203
▁Smart	19204
換	19205
▁לפי	19206
ntis	19207
zí	19208
sinde	19209
▁Hum	19210
khe	19211
▁برخی	19212
ווי	19213
▁była	19214
▁Nas	19215
▁sec	19216
▁진행	19217
▁చెప్ప	19218
▁podczas	19219
▁diper	19220
▁newydd	19221
▁būt	19222
ਣਾ	19223
一樣	19224
▁geld	19225
▁bild	19226
ۈش	19227
ಂತೆ	19228
UNG	19229
▁hanem	19230
▁رس	19231
ót	19232
γα	19233
▁obchod	19234
ชา	19235
150	19236
बि	19237
▁நீ	19238
జి	19239
▁musí	19240
ваць	19241
tog	19242
▁생각	19243
ခ်က္	19244
▁दर	19245
▁klient	19246
▁torna	19247
нні	19248
▁chaque	19249
▁čia	19250
▁83	19251
▁stare	19252
‪	19253
▁chuẩn	19254
čki	19255
well	19256
ತಾ	19257
▁bomo	19258
▁perempuan	19259
▁bulunan	19260
▁spil	19261
jući	19262
īgs	19263
▁elu	19264
▁territorio	19265
ifik	19266
mbar	19267
▁خبریں	19268
▁jusqu	19269
▁Raja	19270
ඩ්	19271
مال	19272
Pre	19273
ట్లు	19274
県	19275
▁claro	19276
▁لوگ	19277
▁فإن	19278
Ex	19279
تل	19280
▁Oy	19281
▁ኢትዮጵያ	19282
CS	19283
lga	19284
kraft	19285
ներում	19286
wala	19287
▁eikä	19288
▁vem	19289
bod	19290
▁Nar	19291
▁mengambil	19292
থ	19293
▁akik	19294
▁Nav	19295
▁tadi	19296
vă	19297
dle	19298
▁խ	19299
▁jauh	19300
هي	19301
▁קל	19302
▁เรา	19303
▁استخدام	19304
arra	19305
▁назад	19306
▁գր	19307
87	19308
late	19309
▁olma	19310
తు	19311
史	19312
୍ୟ	19313
▁Mus	19314
▁ट	19315
▁ຢູ່	19316
သွား	19317
▁аж	19318
▁Sai	19319
ერ	19320
▁چرا	19321
두	19322
イン	19323
اک	19324
ଟ୍	19325
▁halv	19326
▁universitet	19327
▁boa	19328
são	19329
på	19330
ორ	19331
span	19332
yî	19333
▁ചില	19334
▁Multi	19335
▁small	19336
hte	19337
▁♥	19338
▁tanah	19339
▁1970	19340
spa	19341
▁иш	19342
▁Muqdisho	19343
▁सूचना	19344
▁возможность	19345
ash	19346
▁Vám	19347
ංග	19348
ზ	19349
ଡ	19350
▁plats	19351
मु	19352
해야	19353
एं	19354
ุ	19355
▁Stan	19356
ระดับ	19357
▁spolu	19358
ಡೆ	19359
责任	19360
▁pool	19361
▁bera	19362
▁եք	19363
ward	19364
▁həyata	19365
▁وه	19366
▁ساخت	19367
▁সংবাদ	19368
▁Pon	19369
▁միայն	19370
▁នៃ	19371
▁deb	19372
▁સં	19373
▁Bagi	19374
lisi	19375
▁தா	19376
▁pam	19377
▁sede	19378
phi	19379
▁varje	19380
▁малко	19381
▁ھ	19382
▁ಬಾ	19383
egi	19384
ρό	19385
ston	19386
▁vaja	19387
eld	19388
▁fantastisk	19389
黄	19390
ทั้งหมด	19391
不少	19392
vul	19393
▁քանի	19394
▁opge	19395
പ്പി	19396
互联网	19397
▁xuống	19398
▁altres	19399
▁RA	19400
▁eivät	19401
一位	19402
्यो	19403
ாக	19404
人の	19405
▁otras	19406
▁propria	19407
мож	19408
▁சா	19409
▁moeten	19410
kš	19411
HE	19412
▁Bag	19413
cə	19414
▁போ	19415
▁данас	19416
nez	19417
ভ	19418
▁Tru	19419
▁කටයුතු	19420
▁работ	19421
▁کمک	19422
父母	19423
북	19424
▁blitt	19425
增	19426
领	19427
▁Är	19428
▁ros	19429
ITA	19430
罪	19431
▁çdo	19432
ointi	19433
▁Ple	19434
рма	19435
▁Dünya	19436
rc	19437
ವಾ	19438
▁කො	19439
▁प्रकार	19440
▁having	19441
更多的	19442
▁È	19443
身体	19444
▁इति	19445
▁féin	19446
Ј	19447
ае	19448
▁Hall	19449
▁nevoie	19450
ウ	19451
▁RO	19452
▁konkret	19453
TU	19454
▁эр	19455
▁afirma	19456
tér	19457
▁знаю	19458
▁zamanı	19459
▁Pel	19460
▁apud	19461
cept	19462
▁darah	19463
nije	19464
ປະ	19465
▁cun	19466
▁uch	19467
рад	19468
跳	19469
၇	19470
▁nekoliko	19471
▁થાય	19472
▁havia	19473
▁khá	19474
▁zde	19475
▁mesa	19476
рос	19477
رة	19478
ാതെ	19479
▁tilbake	19480
atus	19481
喜歡	19482
ión	19483
▁către	19484
▁anu	19485
▁یعنی	19486
▁लगा	19487
▁quel	19488
▁først	19489
кө	19490
▁Nhà	19491
▁virtu	19492
▁Вер	19493
▁الغ	19494
obra	19495
的事情	19496
▁pilihan	19497
万元	19498
▁WhatsApp	19499
▁kaki	19500
▁autre	19501
бли	19502
ธ	19503
▁ilyen	19504
ТО	19505
梅	19506
▁Putin	19507
▁праз	19508
▁‹‹	19509
▁våre	19510
▁blant	19511
▁газ	19512
▁Meng	19513
tting	19514
▁EM	19515
做好	19516
▁สําหรับ	19517
▁uitge	19518
▁ത്ത	19519
மு	19520
▁vand	19521
▁etti	19522
▁чрез	19523
▁כאן	19524
ේදී	19525
历史	19526
ಂತ	19527
▁Bru	19528
áž	19529
▁stále	19530
▁ਗ	19531
▁אר	19532
▁koska	19533
సు	19534
ába	19535
▁Thema	19536
▁utili	19537
▁inde	19538
▁സു	19539
нг	19540
是在	19541
▁prea	19542
换	19543
tez	19544
▁کنم	19545
▁Ot	19546
lərində	19547
▁годзе	19548
▁åter	19549
▁בן	19550
▁द्वारा	19551
▁지난	19552
▁copii	19553
▁recht	19554
份	19555
▁Aquest	19556
στο	19557
的工作	19558
▁Qua	19559
▁Aj	19560
ଡି	19561
▁hayo	19562
断	19563
ního	19564
▁bych	19565
▁căn	19566
hau	19567
▁Kuala	19568
▁xalq	19569
▁កម្មវិធី	19570
▁potem	19571
的方式	19572
▁قدر	19573
▁rein	19574
เห็น	19575
▁større	19576
▁Put	19577
▁Ն	19578
▁Jul	19579
▁основа	19580
oare	19581
ító	19582
ร้าน	19583
▁hê	19584
▁achter	19585
▁11-	19586
▁beri	19587
▁ఇది	19588
ဆ	19589
▁tule	19590
▁Tik	19591
яв	19592
▁fácil	19593
▁വേ	19594
▁kiểm	19595
▁цели	19596
▁À	19597
▁Negeri	19598
▁शिक्षा	19599
▁ایرانی	19600
▁والد	19601
▁какой	19602
▁मत	19603
▁Pia	19604
▁gọi	19605
▁ہوئی	19606
НЕ	19607
推动	19608
▁hjemme	19609
▁분	19610
rø	19611
▁music	19612
措施	19613
▁Hei	19614
▁BMW	19615
jama	19616
▁نیاز	19617
▁राष्ट्रिय	19618
▁zusammen	19619
▁αυτά	19620
▁thuốc	19621
▁šport	19622
gress	19623
श्	19624
절	19625
вая	19626
▁없는	19627
▁savoir	19628
▁Masa	19629
▁cad	19630
▁kha	19631
▁verschillende	19632
▁soci	19633
▁boste	19634
▁Theo	19635
▁أم	19636
▁такое	19637
▁sint	19638
▁Manuel	19639
iques	19640
판	19641
talan	19642
▁pagar	19643
▁γιατί	19644
վեց	19645
▁attività	19646
▁trova	19647
▁sien	19648
▁παρ	19649
ುವುದು	19650
尽	19651
વું	19652
▁vere	19653
که	19654
▁resultados	19655
ister	19656
▁golf	19657
▁страни	19658
As	19659
▁hou	19660
▁ജന	19661
هر	19662
▁único	19663
湖	19664
ੁ	19665
▁यहाँ	19666
▁chose	19667
lub	19668
▁Thi	19669
aug	19670
▁нес	19671
▁doda	19672
▁것을	19673
▁тек	19674
ձ	19675
▁demande	19676
nými	19677
rja	19678
▁момента	19679
▁ବୋଲି	19680
ував	19681
ႏိုင္	19682
▁hinna	19683
▁ធ្វើ	19684
▁Registr	19685
▁continu	19686
යෝ	19687
▁இல்லை	19688
кы	19689
уға	19690
藏	19691
▁5000	19692
اث	19693
▁High	19694
zne	19695
ALA	19696
▁लेकर	19697
▁hồ	19698
自身	19699
était	19700
▁Кара	19701
▁chơi	19702
maktadır	19703
네	19704
会社	19705
▁miejsce	19706
▁تلك	19707
▁Estados	19708
▁consequat	19709
▁terve	19710
▁Пере	19711
▁hizo	19712
▁least	19713
pred	19714
▁amigos	19715
▁tilbage	19716
Ki	19717
▁vuosi	19718
는데	19719
رم	19720
:1	19721
Ո	19722
ांच्या	19723
▁непо	19724
ws	19725
utus	19726
рон	19727
tati	19728
law	19729
▁ል	19730
▁autobus	19731
▁event	19732
▁тус	19733
يي	19734
▁आपण	19735
ables	19736
ирани	19737
mpe	19738
лена	19739
യി	19740
专家	19741
▁seiner	19742
▁tiến	19743
▁ս	19744
▁Mobile	19745
▁શું	19746
하다	19747
▁Setelah	19748
νομ	19749
亞	19750
▁Nhưng	19751
兵	19752
▁komunik	19753
▁грн	19754
▁vais	19755
rij	19756
▁altında	19757
人が	19758
LS	19759
▁серед	19760
▁सार्वजनिक	19761
ಕಾ	19762
▁դա	19763
անի	19764
▁veure	19765
tiga	19766
▁טוב	19767
▁متن	19768
▁môžete	19769
key	19770
▁ул	19771
బ	19772
▁bagaimana	19773
cut	19774
▁Avropa	19775
ьный	19776
last	19777
▁Así	19778
ený	19779
▁fat	19780
▁strane	19781
▁Калі	19782
vjet	19783
▁dito	19784
תם	19785
▁sati	19786
▁andet	19787
▁komma	19788
▁пари	19789
▁Marketing	19790
▁ប្រទេស	19791
▁sesuatu	19792
▁tomto	19793
વો	19794
▁yaxşı	19795
উ	19796
▁seis	19797
тата	19798
innen	19799
▁Србија	19800
เป	19801
▁clients	19802
مار	19803
▁समेत	19804
tivi	19805
▁oferta	19806
適	19807
ଟା	19808
رك	19809
的時候	19810
▁magaalada	19811
▁которой	19812
llis	19813
餐	19814
hotel	19815
▁решения	19816
▁Teh	19817
▁จะ	19818
zana	19819
ിരുന്നു	19820
▁Ве	19821
▁joten	19822
edd	19823
▁Lee	19824
▁Ken	19825
inas	19826
テ	19827
刘	19828
▁זיי	19829
▁भा	19830
▁AD	19831
▁Ис	19832
ík	19833
sya	19834
రో	19835
▁jumlah	19836
▁supaya	19837
▁Juli	19838
ተው	19839
കള	19840
▁ξε	19841
▁нов	19842
▁कई	19843
▁uni	19844
ahkan	19845
▁గురించి	19846
지만	19847
ujeme	19848
▁мор	19849
ሰብ	19850
เน	19851
▁پل	19852
▁පැ	19853
กลาง	19854
▁osta	19855
▁Kot	19856
яване	19857
ált	19858
▁pays	19859
▁privind	19860
畫	19861
kej	19862
၂	19863
條	19864
▁giữa	19865
jums	19866
▁이상	19867
รอ	19868
と思う	19869
▁лично	19870
▁gehiago	19871
pí	19872
ผล	19873
谁	19874
▁қазақ	19875
ешь	19876
Да	19877
▁детей	19878
▁million	19879
ipun	19880
▁liga	19881
▁available	19882
▁செ	19883
▁πα	19884
blogspot	19885
▁hore	19886
▁walang	19887
tate	19888
▁predstavlja	19889
руш	19890
▁plaats	19891
▁Euroopa	19892
▁Bill	19893
▁један	19894
▁Hin	19895
▁hawa	19896
▁Ant	19897
認為	19898
نج	19899
▁flera	19900
skega	19901
され	19902
▁poza	19903
[...]
